{"<s>":0,"<pad>":1,"</s>":2,"<unk>":3,"!":4,"\"":5,"#":6,"$":7,"%":8,"&":9,"'":10,"(":11,")":12,"*":13,"+":14,",":15,"-":16,".":17,"/":18,"0":19,"1":20,"2":21,"3":22,"4":23,"5":24,"6":25,"7":26,"8":27,"9":28,":":29,";":30,"<":31,"=":32,">":33,"?":34,"@":35,"A":36,"B":37,"C":38,"D":39,"E":40,"F":41,"G":42,"H":43,"I":44,"J":45,"K":46,"L":47,"M":48,"N":49,"O":50,"P":51,"Q":52,"R":53,"S":54,"T":55,"U":56,"V":57,"W":58,"X":59,"Y":60,"Z":61,"[":62,"\\":63,"]":64,"^":65,"_":66,"`":67,"a":68,"b":69,"c":70,"d":71,"e":72,"f":73,"g":74,"h":75,"i":76,"j":77,"k":78,"l":79,"m":80,"n":81,"o":82,"p":83,"q":84,"r":85,"s":86,"t":87,"u":88,"v":89,"w":90,"x":91,"y":92,"z":93,"{":94,"|":95,"}":96,"~":97,"¡":98,"¢":99,"£":100,"¤":101,"¥":102,"¦":103,"§":104,"¨":105,"©":106,"ª":107,"«":108,"¬":109,"®":110,"¯":111,"°":112,"±":113,"²":114,"³":115,"´":116,"µ":117,"¶":118,"·":119,"¸":120,"¹":121,"º":122,"»":123,"¼":124,"½":125,"¾":126,"¿":127,"À":128,"Á":129,"Â":130,"Ã":131,"Ä":132,"Å":133,"Æ":134,"Ç":135,"È":136,"É":137,"Ê":138,"Ë":139,"Ì":140,"Í":141,"Î":142,"Ï":143,"Ð":144,"Ñ":145,"Ò":146,"Ó":147,"Ô":148,"Õ":149,"Ö":150,"×":151,"Ø":152,"Ù":153,"Ú":154,"Û":155,"Ü":156,"Ý":157,"Þ":158,"ß":159,"à":160,"á":161,"â":162,"ã":163,"ä":164,"å":165,"æ":166,"ç":167,"è":168,"é":169,"ê":170,"ë":171,"ì":172,"í":173,"î":174,"ï":175,"ð":176,"ñ":177,"ò":178,"ó":179,"ô":180,"õ":181,"ö":182,"÷":183,"ø":184,"ù":185,"ú":186,"û":187,"ü":188,"ý":189,"þ":190,"ÿ":191,"Ā":192,"ā":193,"Ă":194,"ă":195,"Ą":196,"ą":197,"Ć":198,"ć":199,"Ĉ":200,"ĉ":201,"Ċ":202,"ċ":203,"Č":204,"č":205,"Ď":206,"ď":207,"Đ":208,"đ":209,"Ē":210,"ē":211,"Ĕ":212,"ĕ":213,"Ė":214,"ė":215,"Ę":216,"ę":217,"Ě":218,"ě":219,"Ĝ":220,"ĝ":221,"Ğ":222,"ğ":223,"Ġ":224,"ġ":225,"Ģ":226,"ģ":227,"Ĥ":228,"ĥ":229,"Ħ":230,"ħ":231,"Ĩ":232,"ĩ":233,"Ī":234,"ī":235,"Ĭ":236,"ĭ":237,"Į":238,"į":239,"İ":240,"ı":241,"Ĳ":242,"ĳ":243,"Ĵ":244,"ĵ":245,"Ķ":246,"ķ":247,"ĸ":248,"Ĺ":249,"ĺ":250,"Ļ":251,"ļ":252,"Ľ":253,"ľ":254,"Ŀ":255,"ŀ":256,"Ł":257,"ł":258,"Ń":259,"he":260,"Ġt":261,"Ġa":262,"Ġs":263,"Ġw":264,"nd":265,"Ġthe":266,"ed":267,"Ġand":268,"Ġto":269,"Ġb":270,"in":271,"Ġh":272,"Ġwa":273,"re":274,"ou":275,"Ġf":276,"it":277,"Ġl":278,"Ġc":279,"Ġd":280,"er":281,"Ġhe":282,"Ġm":283,"Ġp":284,"Ġwas":285,"om":286,"ĠT":287,"Ġo":288,"ay":289,"ar":290,"is":291,"ing":292,"il":293,"Ġg":294,"id":295,"at":296,"en":297,"Ġn":298,"Ġsa":299,"Ġha":300,"ĠS":301,"ĠThe":302,"an":303,"im":304,"or":305,"on":306,"Ġit":307,"Ġth":308,"ll":309,"le":310,"ĠH":311,"Ġher":312,"ot":313,"et":314,"ir":315,"ĠShe":316,"es":317,"ĠHe":318,"Ġin":319,"ver":320,"ut":321,"ow":322,"ĠThey":323,"ck":324,"Ġe":325,"Ġu":326,"ld":327,"Ġy":328,"oo":329,"Ġsaid":330,"ig":331,"Ġ\"":332,"ily":333,"Ġr":334,"Ġbe":335,"am":336,"Ġst":337,"ĠI":338,"ce":339,"ke":340,"Ġshe":341,"ve":342,"pp":343,"ith":344,"Ġwith":345,"Lily":346,"On":347,"Ġon":348,"Ġyou":349,"Ġof":350,"ked":351,"ri":352,"Ġso":353,"nt":354,"Ġhis":355,"Ġpl":356,"ad":357,"very":358,"Ġday":359,"Ġthat":360,"Ġup":361,"Ġplay":362,"Ġhad":363,"st":364,"Ġthey":365,"Ġwe":366,"ĠLily":367,"Ġmom":368,"Ġfor":369,"ĠB":370,"el":371,"un":372,"ould":373,"'s":374,"my":375,"The":376,"Ġli":377,"ch":378,"ent":379,"Ġhapp":380,"Ġwant":381,"itt":382,"Ġsh":383,"out":384,"her":385,"Ġdo":386,"ly":387,"Ġnot":388,"ome":389,"se":390,"Ġvery":391,"ound":392,"end":393,"all":394,"Ġwh":395,"ime":396,"ittle":397,"Ġk":398,"Ġtime":399,"Ġlittle":400,"al":401,"ĠĊ":402,"Ġthere":403,"Ġne":404,"ht":405,"ĠM":406,"Ġre":407,"Ġhappy":408,"Ġsm":409,"Ġbig":410,"Ġis":411,"ĠIt":412,"Ġbut":413,"ack":414,"Ġan":415,"Ġsaw":416,"riend":417,".\"":418,"Ġfriend":419,"ry":420,"Ġas":421,"ra":422,"One":423,"ide":424,"ake":425,"'t":426,"!\"":427,"ug":428,"Ġloo":429,"ved":430,"ter":431,"Ġwere":432,"ore":433,"Once":434,"Ġlo":435,"ec":436,"Ġhim":437,"Ġtoo":438,"Ġgo":439,"Ġbo":440,"Ġse":441,"irl":442,"Ġare":443,"Ġj":444,"ĠTim":445,"ard":446,"Ġwanted":447,"ill":448,"Ġgirl":449,"Ġupon":450,"Ġthem":451,"Ġout":452,"Ġat":453,"ur":454,"ind":455,"Ġtheir":456,"fu":457,"Ġsp":458,"way":459,"ĠA":460,"Ġsmil":461,"Ġdid":462,"Ġcould":463,"hen":464,"Ġhave":465,"ain":466,"art":467,"Ġex":468,"hed":469,"rom":470,"Ġwent":471,"Ġar":472,"ic":473,"Ġcan":474,"ĠJ":475,"lp":476,"ful":477,"ĠBen":478,"ood":479,"?\"":480,"hing":481,"Ġfriends":482,"Ġnam":483,"ight":484,"Ġall":485,"Ġhelp":486,"Ġkn":487,"um":488,"one":489,"ark":490,"Ġback":491,"Ġsay":492,"You":493,"Ġfun":494,"Ġcl":495,"ĠTom":496,"are":497,"Ġno":498,"Ġle":499,"op":500,"Ġsmiled":501,"Ġsc":502,"Ġnamed":503,"Ġal":504,"oug":505,"Ġloved":506,"side":507,"elt":508,"ĠOne":509,"Ġman":510,"Ġasked":511,"ick":512,"Ġtoy":513,"Ġlike":514,"Ġfe":515,"Ġfelt":516,"Ġlooked":517,"Ġsome":518,"Ġaround":519,"Ġsee":520,"Ġme":521,"ame":522,"omet":523,"ĠW":524,"Ġro":525,"Ġbr":526,"ure":527,"ĠTimmy":528,"Ġbir":529,"get":530,"ice":531,"Ġboy":532,"Ġwould":533,"Ġstart":534,"ong":535,"Ã¢":536,"âĤ":537,"âĤ¬":538,"ss":539,"Ġbird":540,"Ġsomet":541,"Ġfa":542,"dd":543,"ings":544,"Ġag":545,"Ġwor":546,"Ġwhat":547,"ade":548,"Ġmake":549,"king":550,",\"":551,"ie":552,"ĠBut":553,"own":554,"Ġtre":555,"Ġran":556,"gether":557,"ĠYou":558,"Ġaway":559,"ag":560,"ared":561,"Ġsays":562,"Ġstarted":563,"oud":564,"if":565,"Ġmade":566,"Ġcar":567,"Ġsomething":568,"Ġtogether":569,"ited":570,"ther":571,"Ġpark":572,"Ġco":573,"Ġsad":574,"Ġother":575,"Ġnew":576,"Ġexc":577,"Ġput":578,"Ġfrom":579,"Ġpr":580,"ell":581,"ĠL":582,"Ġla":583,"Ġhug":584,"ble":585,"Ġmu":586,"ook":587,"ach":588,"Ġagain":589,"Ġhome":590,"Ġwhen":591,"Ġgood":592,"hat":593,"ep":594,"Ġwho":595,"est":596,"ried":597,"Ġfound":598,"Ġfl":599,"Ġthen":600,"Ġch":601,"Ġdec":602,"pped":603,"Ġwal":604,"as":605,"Ġget":606,"qu":607,"Ġplaying":608,"ought":609,"pl":610,"ĠE":611,"ally":612,"Ġsw":613,"ous":614,"nn":615,"Ġthings":616,"Ġexcited":617,"Ġliked":618,"Ġgot":619,"uck":620,"ro":621,"ided":622,"Ġdecided":623,"Ġbl":624,"ave":625,"Ġcame":626,"Ġevery":627,"ara":628,"Ġyour":629,"ĠD":630,"ĠMom":631,"ax":632,"Ġv":633,"Ġscared":634,"ust":635,"Ġone":636,"Ġdog":637,"Ġdown":638,"ouse":639,"ny":640,"Ġfind":641,"Ġcare":642,"Ġbec":643,"ist":644,"Ġthan":645,"Ġfeel":646,"ap":647,"ue":648,"udd":649,"nna":650,"Ġdad":651,"Ġab":652,"They":653,"Ġmy":654,"Ġlook":655,"Ġke":656,"our":657,"Ġwill":658,"arn":659,"Ġgr":660,"us":661,"nder":662,"Ġgra":663,"ways":664,"ess":665,"Ġdidn":666,"Ġpo":667,"fe":668,"Ġalways":669,"Ġtook":670,"Ġabout":671,"ant":672,"bb":673,"Ġlot":674,"Ġmommy":675,"Ġtoys":676,"Ġkne":677,"ers":678,"ise":679,"ite":680,"Ġoutside":681,"Ġtree":682,"Ġthought":683,"Ġball":684,"ĠF":685,"Ġmore":686,"eci":687,"ĠSam":688,"ened":689,"ched":690,"Ġta":691,"Ġold":692,"Ġho":693,"Ġlearn":694,"ret":695,"Ġint":696,"ged":697,"Ġknow":698,"Ġlaug":699,"Ġtake":700,"ecial":701,"Ġspecial":702,"Ġsor":703,"Ġcat":704,"udden":705,"Ġknew":706,"ĠMax":707,"ive":708,"ia":709,"Ġpe":710,"Ġany":711,"uddenly":712,"Ġtr":713,"fter":714,"Ġhow":715,"ma":716,"Ġshow":717,"ink":718,"Ġsorry":719,"Ġtw":720,"But":721,"Ġmuch":722,"au":723,"ish":724,"Ġrun":725,"and":726,"Ġhand":727,"Ġsl":728,"ven":729,"Ġhouse":730,"Ġor":731,"Ġop":732,"Ġsk":733,"Ġmo":734,"Ġclo":735,"Ġsun":736,"Ġinto":737,"Ġtried":738,"Ġinside":739,"ate":740,"Ġtold":741,"Ġwater":742,"Ġthis":743,"Ġen":744,"ank":745,"Ġif":746,"Ġproud":747,"ump":748,"Ġqu":749,"Ġover":750,"Ġcouldn":751,"Tom":752,"dy":753,"Ġgave":754,"Ġheard":755,"ĠSara":756,"Ġnever":757,"by":758,"Ġeach":759,"ace":760,"Ġroom":761,"ty":762,"Ġexpl":763,"ĠEvery":764,"Ġeat":765,"ĠWe":766,"other":767,"ause":768,"Ġpick":769,"ion":770,"Ġpret":771,"ĠAnna":772,"Mom":773,"Ġplayed":774,"ge":775,"etter":776,"Ġjust":777,"ak":778,"Ġhugged":779,"Ġgre":780,"here":781,"Ġoff":782,"Ġcom":783,"Ġwat":784,"oth":785,"Ġbox":786,"Ġnice":787,"'m":788,"Ġstr":789,"Ġbecause":790,"Ġneed":791,"ile":792,"Ġmany":793,"Ġfo":794,"uc":795,"Ġjo":796,"Ġbear":797,"Ġsmall":798,"iz":799,"Ġbu":800,"ving":801,"Ġlong":802,"ine":803,"gry":804,"imal":805,"ort":806,"Ġanimal":807,"Ġsn":808,"ough":809,"Ġtry":810,"Ġunt":811,"ild":812,"sel":813,"urt":814,"Ġuntil":815,"ĠJack":816,"sed":817,"Ġkind":818,"Ġlearned":819,"Ġim":820,"Ġlove":821,"Ġbetter":822,"ft":823,"Ġflow":824,"Ġcall":825,"Ġdon":826,"He":827,"ĠJo":828,"Ġend":829,"Ġad":830,"ull":831,"Ġbest":832,"vent":833,"Yes":834,"ars":835,"urp":836,"ady":837,"em":838,"ream":839,"aut":840,"urn":841,"ĠMia":842,"Ġcle":843,"ĠAnd":844,"ves":845,"Åĵ":846,"arden":847,"ĠC":848,"Ġgarden":849,"Ġfast":850,"Ġcareful":851,"ber":852,"Ġbeaut":853,"lly":854,"Th":855,"Ġeven":856,"pt":857,"Ġbra":858,"ies":859,"Ġthanked":860,"Ġfi":861,"ĠSo":862,"Ġche":863,"Ġlaughed":864,"Ġsky":865,"Ġby":866,"It":867,"ĠHer":868,"Ġjump":869,"Ġgl":870,"ase":871,"Ġte":872,"Ġloud":873,"self":874,"iny":875,"Ġway":876,"wn":877,"Ġbeauti":878,"Ġcome":879,"lew":880,"Ġlist":881,"Ġwo":882,"Ġbeautiful":883,"Ġhard":884,"Ġlots":885,"Ġra":886,"Ġstill":887,"Ġfam":888,"Ġanimals":889,"ĠÃ¢":890,"Ġhurt":891,"Ġunder":892,"ĠThen":893,"ect":894,"Ġstay":895,"ning":896,"Ġlet":897,"ct":898,"Ġboth":899,"Ġcu":900,"ĠHis":901,"hes":902,"be":903,"Ġsafe":904,"ĠFrom":905,"ool":906,"ree":907,"Ġcol":908,"Ġtwo":909,"Ġbad":910,"Ġbook":911,"Ġimp":912,"ople":913,"Ġrem":914,"ane":915,"Ġlived":916,"kay":917,"ock":918,"ucy":919,"Ġwalked":920,"Tim":921,"ast":922,"urpr":923,"Ġbrave":924,"Ġshould":925,"Ġits":926,"ob":927,"ished":928,"Ġangry":929,"Ġsurpr":930,"Ġfamily":931,"ress":932,"igh":933,"When":934,"Ġpeople":935,"Ġflew":936,"Ġcalled":937,"No":938,"Ġred":939,"Ġstor":940,"ip":941,"Ġsoon":942,"Ġfin":943,"hn":944,"Let":945,"led":946,"Ġkept":947,"Ġfore":948,"fore":949,"Ġdan":950,"Ġshare":951,"Ġfly":952,"xt":953,"ised":954,"dded":955,"Ġpic":956,"âĤ¬â":957,"Ġdoor":958,"Ġgoing":959,"ĠP":960,"ĠWhen":961,"Ġpretty":962,"Ġkeep":963,"Ġnow":964,"Ġrock":965,"Ġclean":966,"Ġdra":967,"ary":968,"Ġadvent":969,"ummy":970,"Ġnoise":971,"Ġopened":972,"Ġshiny":973,"age":974,"Ġexplore":975,"Ġwind":976,"Ġdoll":977,"Ġcry":978,"Ġcon":979,"Ġide":980,"Ġbefore":981,"ied":982,"Ben":983,"illy":984,"Ġreal":985,"Ġsto":986,"so":987,"What":988,"Ġground":989,"Ġalso":990,"les":991,"Ġturn":992,"Ħ¢":993,"âĤ¬âĦ¢":994,"Ġey":995,"That":996,"Ġfar":997,"Ġidea":998,"Ġfr":999,"oon":1000,"Ġnodded":1001,"Ġcolor":1002,"Ġwar":1003,"oy":1004,"Ġfeeling":1005,"Ġun":1006,"Ġpicked":1007,"imb":1008,"th":1009,"ĠLucy":1010,"Ġnext":1011,"Ġwalking":1012,"thing":1013,"ture":1014,"ĠDad":1015,"Ġclimb":1016,"Ġhas":1017,"uch":1018,"Ġma":1019,"Ġthr":1020,"Ġwhile":1021,"eet":1022,"Ġbed":1023,"Ġadventure":1024,"Ġsmile":1025,"kes":1026,"aybe":1027,"Thank":1028,"iced":1029,"ger":1030,"ious":1031,"ĠG":1032,"Ġbeing":1033,"Ġdif":1034,"Ġwr":1035,"Ġclos":1036,"Ġfood":1037,"joy":1038,"ted":1039,"Ġgive":1040,"Ġpicture":1041,"Ġthink":1042,"ĠSp":1043,"Ġlooking":1044,"Ġdel":1045,"ff":1046,"ac":1047,"Ġtruck":1048,"Ġwait":1049,"Ġeyes":1050,"ught":1051,"Ġtow":1052,"ting":1053,"Ġrepl":1054,"Ġbro":1055,"Ġstopped":1056,"Ġlisten":1057,"Ġafter":1058,"Ġbre":1059,"Ġown":1060,"Ġvo":1061,"Ġwalk":1062,"ember":1063,"ĠSuddenly":1064,"Ġwonder":1065,"Ġgreat":1066,"Ġhands":1067,"Suddenly":1068,"Ġshout":1069,"Ġhead":1070,"Ġenjoy":1071,"Ġimport":1072,"Ġflowers":1073,"Ġever":1074,"Ġnoticed":1075,"Ġblue":1076,"Ġforest":1077,"bbit":1078,"She":1079,"ized":1080,"Ġapp":1081,"irst":1082,"Ġnear":1083,"Ġquick":1084,"Ġdis":1085,"Ġde":1086,"able":1087,"Ġimportant":1088,"Ġremember":1089,"Ġfish":1090,"llow":1091,"Ġsound":1092,"Ġslide":1093,"Ġus":1094,"maz":1095,"Ġreplied":1096,"Ġamaz":1097,"Ġac":1098,"lease":1099,"Ġwork":1100,"Ġwatch":1101,"Ġrain":1102,"Ġshowed":1103,"Ġrabbit":1104,"Ġokay":1105,"gan":1106,"Ġtal":1107,"bye":1108,"fere":1109,"bbed":1110,"Ġask":1111,"Ġdiffere":1112,"Ġmean":1113,"Ġright":1114,"Ġye":1115,"day":1116,"Ġwatched":1117,"Ġbright":1118,"Ġfollow":1119,"We":1120,"ĠSpot":1121,"So":1122,"Ġeveryone":1123,"Ġstrong":1124,"Ġsqu":1125,"Ġstick":1126,"Ġuse":1127,"Ġbeen":1128,"Ġmor":1129,"Ġvoice":1130,"Ġtra":1131,"ered":1132,"Ġquickly":1133,"ath":1134,"Ġour":1135,"Ġwhere":1136,"Ġyell":1137,"ĠN":1138,"ĠMommy":1139,"Anna":1140,"Ġdifferent":1141,"ĠBob":1142,"Ġchild":1143,"Ġcuri":1144,"Ġboat":1145,"ng":1146,"Ġsure":1147,"ĠSue":1148,"Ġbecame":1149,"Ġgoodbye":1150,"Ġface":1151,"Ġplace":1152,"ange":1153,"Ġhop":1154,"Ġhigh":1155,"Ġam":1156,"Look":1157,"aught":1158,"ĠR":1159,"Ġcloser":1160,"Ġstore":1161,"Ġwarm":1162,"Ġdoes":1163,"Ġcr":1164,"Ġdress":1165,"Sara":1166,"unny":1167,"Ġcurious":1168,"Ġmag":1169,"ila":1170,"Jo":1171,"Ġcook":1172,"Ġbel":1173,"Ġforg":1174,"Ġtell":1175,"Ġfav":1176,"ndma":1177,"ass":1178,"ount":1179,"co":1180,"Ġthree":1181,"leep":1182,"Ġnight":1183,"Ġopen":1184,"Ġcake":1185,"more":1186,"Ġhere":1187,"Ġanymore":1188,"Ġblock":1189,"Ġfirst":1190,"itc":1191,"Ġbus":1192,"Ġpull":1193,"iss":1194,"ached":1195,"Her":1196,"ired":1197,"Ġbutter":1198,"Ġz":1199,"imes":1200,"ĠTh":1201,"orn":1202,"Ġsweet":1203,"Ġpain":1204,"Ġkid":1205,"Ġgrabbed":1206,"Can":1207,"Ġpu":1208,"isy":1209,"Ġonly":1210,"Ġmon":1211,"Ġlea":1212,"Ġfell":1213,"Ġba":1214,"Ġru":1215,"Ġcont":1216,"Ġbirds":1217,"Ġjumped":1218,"Ġglad":1219,"Ġbit":1220,"Ġsand":1221,"itchen":1222,"Ġkitchen":1223,"Ġhelped":1224,"Ġsees":1225,"Ġfire":1226,"Ġper":1227,"Ġflo":1228,"Ġstop":1229,"ĠSarah":1230,"Ġhappened":1231,"Ġsing":1232,"Ġgrass":1233,"Ġbunny":1234,"Ġshouted":1235,"Ġstory":1236,"ĠLet":1237,"Ġtri":1238,"nts":1239,"Ġdr":1240,"air":1241,"After":1242,"ĠJane":1243,"ppy":1244,"Ġreached":1245,"Ġbeh":1246,"Ġrealized":1247,"Ġyummy":1248,"Ġbrother":1249,"ĠDo":1250,"Ġlady":1251,"Ġmum":1252,"Ġhaving":1253,"Ġprin":1254,"ins":1255,"Ġfavor":1256,"ĠAs":1257,"'re":1258,"Ġmess":1259,"Ġfavorite":1260,"Ġdraw":1261,"Ġcre":1262,"Ġrest":1263,"Ġthrough":1264,"Ġgame":1265,"Ġhat":1266,"Ġate":1267,"Ġless":1268,"Ġunderst":1269,"akes":1270,"ĠEveryone":1271,"Ġsoft":1272,"Ġpare":1273,"zy":1274,"Ġthing":1275,"Ġreally":1276,"ather":1277,"Ġready":1278,"Mommy":1279,"Ġbegan":1280,"where":1281,"Ġpretend":1282,"ĠCan":1283,"Ġworld":1284,"ĠJoe":1285,"ĠThat":1286,"Ġlooks":1287,"ken":1288,"Ġhimself":1289,"Ġmagic":1290,"fully":1291,"Ġpap":1292,"Ġdone":1293,"Ġbutterf":1294,"Ġmaking":1295,"Ġcut":1296,"Ġcoming":1297,"Ġduck":1298,"ater":1299,"Ġpond":1300,"Ġkids":1301,"Ġwaved":1302,"Ġwhy":1303,"Ġprom":1304,"Ġtired":1305,"Ġfro":1306,"Ġfix":1307,"olly":1308,"ster":1309,"Ġmouse":1310,"Ġworry":1311,"Ġpart":1312,"Ġcars":1313,"Ġste":1314,"Ġdelic":1315,"Ġname":1316,"Ġflower":1317,"ign":1318,"Ġfill":1319,"Wow":1320,"aisy":1321,"Ġtouch":1322,"eddy":1323,"Ġfunny":1324,"Ġcatch":1325,"bo":1326,"Ġused":1327,"sh":1328,"Ġseen":1329,"Ġhair":1330,"ĠJohn":1331,"Ġtast":1332,"ient":1333,"Ġtop":1334,"Ġparents":1335,"rel":1336,"Ġanother":1337,"Ġhold":1338,"Ġhopped":1339,"Ġcried":1340,"iver":1341,"uff":1342,"oney":1343,"mer":1344,"Ġdoing":1345,"Ġcool":1346,"Ġblocks":1347,"hy":1348,"\".":1349,"Ġpus":1350,"Ġsurprise":1351,"Ġlight":1352,"Ġgreen":1353,"As":1354,"Ġthank":1355,"Ġlesson":1356,"Timmy":1357,"ation":1358,"Ġread":1359,"Ġfloor":1360,"Ġdin":1361,"Ġgi":1362,"Ġwood":1363,"Ġfull":1364,"Don":1365,"Ġdri":1366,"ards":1367,"Ġtrees":1368,"Ġrunning":1369,"Ġwindow":1370,"Ġworked":1371,"Ġyears":1372,"Ġcra":1373,"Ġdro":1374,"Ġ-":1375,"Ġdark":1376,"Ġbehind":1377,"Ġlikes":1378,"Ġsmell":1379,"Ġspot":1380,"Ġwished":1381,"Ġpaper":1382,"ued":1383,"Ġyellow":1384,"andy":1385,"Ġbow":1386,"ul":1387,"ren":1388,"Ġswim":1389,"John":1390,"Ġhappily":1391,"Ġbag":1392,"Ġsat":1393,"Ġsho":1394,"Sam":1395,"Ġsleep":1396,"aring":1397,"Ġsurprised":1398,"ely":1399,"Ġfrog":1400,"Ġbutterfly":1401,"ike":1402,"Ġswing":1403,"Ġset":1404,"Ġcarefully":1405,"ĠIn":1406,"Ġslow":1407,"Ġremembered":1408,"Ġlost":1409,"Ġcold":1410,"Ġheld":1411,"ello":1412,"Hello":1413,"Ġhole":1414,"Ġice":1415,"Ġlaugh":1416,"rew":1417,"Ġneeded":1418,"Ġbuy":1419,"Ġperf":1420,"Ġleft":1421,"ons":1422,"Ġmove":1423,"reed":1424,"cess":1425,"Ġanything":1426,"Ġdream":1427,"Ġtall":1428,"Ġenjoyed":1429,"Ġwrong":1430,"Ġarri":1431,"uit":1432,"Ġhear":1433,"Ġfair":1434,"Ġair":1435,"Ġfollowed":1436,"inally":1437,"Ġbooks":1438,"ross":1439,"Ġel":1440,"Ġchildren":1441,"Ġhun":1442,"Ġdelicious":1443,"Ġtable":1444,"Ġfinished":1445,"Ġcontin":1446,"Ġfriendly":1447,"Ġdir":1448,"Ġhot":1449,"Ġsnow":1450,"Ġherself":1451,"ds":1452,"lf":1453,"ĠAfter":1454,"Ġhill":1455,"ens":1456,"Ġunderstand":1457,"Ġplease":1458,"Ġclose":1459,"ined":1460,"Ġhid":1461,"Ġarrived":1462,"Ġcast":1463,"Ġelse":1464,"Ġarm":1465,"Ġbaby":1466,"Ġwonderful":1467,"Ġmight":1468,"Ġgent":1469,"Ġtight":1470,"Ġforgot":1471,"sp":1472,"ield":1473,"Ġbug":1474,"ĠSally":1475,"Ġcolors":1476,"Ġrel":1477,"Ġbuild":1478,"Ġbroken":1479,"ĠDaisy":1480,"Ġable":1481,"Ġgone":1482,"av":1483,"ner":1484,"ĠNow":1485,"ĠBenny":1486,"ĠLila":1487,"Ġyes":1488,"atter":1489,"Ġsong":1490,"Then":1491,"ich":1492,"Ġwall":1493,"Ġsquir":1494,"Ġfilled":1495,"Ġagreed":1496,"Ġsomeone":1497,"Jack":1498,"Ġcontinued":1499,"room":1500,"Ġcreat":1501,"asure":1502,"'ll":1503,"Ġcount":1504,"Ġwants":1505,"Ġsquirrel":1506,"ĠEm":1507,"Ġpink":1508,"Ġleaves":1509,"ask":1510,"Ġenough":1511,"ey":1512,"ĠThere":1513,"ĠTommy":1514,"Ġlion":1515,"From":1516,"ama":1517,"ee":1518,"OK":1519,"Ġmorning":1520,"Ġvis":1521,"Ġmoment":1522,"Ġfinally":1523,"Ġgetting":1524,"Ġstayed":1525,"Ġcookies":1526,"Ġbreak":1527,"app":1528,"Ġpoin":1529,"ance":1530,"Ġbeach":1531,"ĠK":1532,"Ġfew":1533,"ĠMaybe":1534,"Ġscary":1535,"Ġfight":1536,"Ġsometimes":1537,"row":1538,"ash":1539,"ries":1540,"ced":1541,"red":1542,"Ġturned":1543,"Ġhungry":1544,"Ġfall":1545,"Ġdinner":1546,"gon":1547,"Ġmother":1548,"Ġgrandma":1549,"Ġju":1550,"Ġwet":1551,"ĠWhat":1552,"Ġamazing":1553,"apped":1554,"Ġtrying":1555,"His":1556,"Ġcream":1557,"Ġdaddy":1558,"Ġperfect":1559,"Ġpi":1560,"Ġmakes":1561,"Ġcastle":1562,"Ġothers":1563,"At":1564,"Ġclimbed":1565,"key":1566,"oup":1567,"ĠThis":1568,"This":1569,"Ġpictures":1570,"icy":1571,"Ġcomp":1572,"amp":1573,"Ġtalk":1574,"Ġmet":1575,"Ġmus":1576,"Ġwhite":1577,"oom":1578,"Ġlistened":1579,"Ġsmiles":1580,"man":1581,"Ġfur":1582,"Ġballoon":1583,"Ġclot":1584,"oring":1585,"ĠGra":1586,"Ġalone":1587,"Ġclothes":1588,"Ġpol":1589,"ĠBilly":1590,"lc":1591,"Ġtail":1592,"Ġjoy":1593,"ated":1594,"rot":1595,"Oh":1596,"Ġpuppy":1597,"Ġspl":1598,"ence":1599,"Ġmar":1600,"Ġwasn":1601,"Ġbrought":1602,"Ġdeep":1603,"Ġeverything":1604,"Ġpet":1605,"Ġsear":1606,"Ġstrange":1607,"ister":1608,"ctor":1609,"Ġspark":1610,"der":1611,"Ġsit":1612,"Ġwoods":1613,"Ġgrow":1614,"Ġpulled":1615,"ling":1616,"Ġsail":1617,"ĠTo":1618,"ott":1619,"Ġwon":1620,"Ġplan":1621,"Ġride":1622,"eter":1623,"Ġasks":1624,"Ġfox":1625,"Ġpie":1626,"Ġdanger":1627,"Ġtreat":1628,"uffy":1629,"Ġroll":1630,"Ġvisit":1631,"ĠAmy":1632,"os":1633,"Ġleave":1634,"med":1635,"ĠJen":1636,"Ġpat":1637,"ucky":1638,"Ġmusic":1639,"Ġamazed":1640,"Ġwaited":1641,"Ġteddy":1642,"Ġhide":1643,"me":1644,"ang":1645,"ever":1646,"Ġtowards":1647,"Max":1648,"ower":1649,"Ġfield":1650,"Ġland":1651,"Ġpre":1652,"Ġflying":1653,"zz":1654,"Ġpen":1655,"Ġsilly":1656,"Ġshared":1657,"Ġruns":1658,"ained":1659,"Ġowner":1660,"Ġcloud":1661,"ape":1662,"Ġliving":1663,"ugg":1664,"Ġqui":1665,"ames":1666,"Ġjob":1667,"Ġpromised":1668,"Okay":1669,"Ġbelie":1670,"igg":1671,"Ġmoral":1672,"Ġgu":1673,"Ġside":1674,"gs":1675,"orm":1676,"Ġlake":1677,"ol":1678,"Ġpa":1679,"Ġthinks":1680,"Maybe":1681,"cket":1682,"ope":1683,"Ġpaint":1684,"Ġsec":1685,"thy":1686,"Ġsister":1687,"ually":1688,"Ġparty":1689,"Ġquiet":1690,"ises":1691,"Ġmust":1692,"cle":1693,"Ġrace":1694,"ĠJim":1695,"avy":1696,"Ġmoney":1697,"Ġwear":1698,"sw":1699,"Ġworried":1700,"ased":1701,"up":1702,"Ġansw":1703,"unch":1704,"Ġslowly":1705,"Ġpot":1706,"eces":1707,"Ġcolorful":1708,"Ġfaster":1709,"Ġgrate":1710,"Ġow":1711,"Ġdance":1712,"Ġpieces":1713,"Ġbran":1714,"Ġbott":1715,"Ġwelc":1716,"Ġbroke":1717,"Ġcup":1718,"ix":1719,"Ġgrateful":1720,"Ġgif":1721,"Ġsuch":1722,"Ġbigger":1723,"ze":1724,"Ġtrain":1725,"ph":1726,"fort":1727,"Ġsnack":1728,"Ġcho":1729,"Ġreach":1730,"Ġblank":1731,"ĠAll":1732,"Ġmonster":1733,"Ġpro":1734,"Ġplant":1735,"Ġjoin":1736,"Ġriver":1737,"Ġblack":1738,"less":1739,"Ġwin":1740,"Ġcandy":1741,"ire":1742,"Ġblanket":1743,"Ġscream":1744,"Ġtreasure":1745,"Ġmagical":1746,"ear":1747,"Ġve":1748,"Ġprincess":1749,"Ġele":1750,"Ġsmart":1751,"Ġbike":1752,"Ġdangerous":1753,"Ġsign":1754,"Ġdragon":1755,"Ġacross":1756,"Ġmonkey":1757,"Sure":1758,"Ġbar":1759,"Ġeverywhere":1760,"Ġmost":1761,"ĠDaddy":1762,"Ġhelping":1763,"Ġnap":1764,"Ġfarmer":1765,"outh":1766,"Ġem":1767,"Ġmouth":1768,"Why":1769,"set":1770,"Ġdisapp":1771,"Ġwords":1772,"Ġje":1773,"ipped":1774,"Ġstre":1775,"ored":1776,"Hi":1777,"Ġtower":1778,"ming":1779,"eared":1780,"Ġthrew":1781,"Ġstepped":1782,"Ġheavy":1783,"Ġdolls":1784,"Ġpass":1785,"Ġbite":1786,"de":1787,"Ġbowl":1788,"Ġdirty":1789,"Ġtwins":1790,"Ġsame":1791,"Ġcrying":1792,"Ġbee":1793,"Ġspr":1794,"ere":1795,"Ġdoctor":1796,"ident":1797,"ĠMolly":1798,"Ġacc":1799,"Ġbelieve":1800,"Ġwouldn":1801,"Ġbath":1802,"Ġheal":1803,"ĠFl":1804,"chool":1805,"Ġhig":1806,"bble":1807,"Ġclosed":1808,"Ġcarrot":1809,"Ġheart":1810,"Mia":1811,"Ġstuck":1812,"cked":1813,"Ġcour":1814,"Ġfruit":1815,"Ġbuck":1816,"Ġmin":1817,"Ġatt":1818,"Ġteac":1819,"Ġschool":1820,"ĠMr":1821,"Ġbrown":1822,"Ġhoped":1823,"ĠJill":1824,"asket":1825,"iting":1826,"Ġsuddenly":1827,"Ġbasket":1828,"Ġfeels":1829,"Ġmix":1830,"Ġchair":1831,"Ġeating":1832,"Ġtown":1833,"Ġcourse":1834,"Ġcray":1835,"Ġclapped":1836,"Ġcoll":1837,"Ġgentle":1838,"Ġfairy":1839,"pping":1840,"Ġbutt":1841,"Ġpack":1842,"ventually":1843,"Ġstand":1844,"ier":1845,"Ġdrove":1846,"ors":1847,"Ġpushed":1848,"br":1849,"issed":1850,"Ġwelcome":1851,"ts":1852,"Ġswings":1853,"Ġwithout":1854,"Ġhigher":1855,"Ġtoday":1856,"Ġneigh":1857,"Ġpocket":1858,"orrow":1859,"Ġhit":1860,"Ġteacher":1861,"Ġneighb":1862,"Ġpers":1863,"ord":1864,"Ġsmo":1865,"Ġgames":1866,"ourn":1867,"Ġpiece":1868,"ract":1869,"Ġcheered":1870,"Ġwings":1871,"Ġforget":1872,"Ġben":1873,"Ġexplained":1874,"Ġjourn":1875,"Ġyard":1876,"Ġlonger":1877,"Ġfree":1878,"Finally":1879,"ible":1880,"Ġcorn":1881,"Ġaccident":1882,"ho":1883,"ead":1884,"Ġdry":1885,"Ġalong":1886,"umb":1887,"ĠMary":1888,"ment":1889,"cy":1890,"Ġnoises":1891,"itting":1892,"Ġneck":1893,"Ġsang":1894,"Ġinst":1895,"Ġlate":1896,"Ġhappen":1897,"Ġthrow":1898,"Ġhugs":1899,"Lila":1900,"Ġyoung":1901,"Ġturns":1902,"Ġstories":1903,"vel":1904,"Ġshoes":1905,"phant":1906,"Ġlon":1907,"Ġmiss":1908,"Ġadventures":1909,"Ġsinging":1910,"Ġtrou":1911,"Ġwell":1912,"Ġsea":1913,"Ġlunch":1914,"Ġapple":1915,"Ġupset":1916,"Ġlonely":1917,"Ġkey":1918,"ches":1919,"Ġbelong":1920,"bby":1921,"oun":1922,"Ġdist":1923,"Ġsecret":1924,"Ġstreet":1925,"Ġplac":1926,"Ġelephant":1927,"Ġtom":1928,"Ġwish":1929,"Ġfence":1930,"Ġmine":1931,"ountain":1932,"Ġmat":1933,"ek":1934,"Ġshap":1935,"Ġshook":1936,"Ġexploring":1937,"Ġmoved":1938,"Ġpurp":1939,"Ġyear":1940,"aughty":1941,"Ġnearby":1942,"Ġnaughty":1943,"Ġstar":1944,"Ġsoup":1945,"Ġshop":1946,"Ġwise":1947,"ĠGrandma":1948,"Ġstars":1949,"Ġowl":1950,"Ġbring":1951,"fused":1952,"Ġjar":1953,"bow":1954,"Do":1955,"ocked":1956,"Ġinv":1957,"Ġexp":1958,"Ġwhe":1959,"yard":1960,"Ġcaught":1961,"Ġsu":1962,"ward":1963,"Ġbackyard":1964,"Ġseemed":1965,"ail":1966,"Ġes":1967,"Ġrelie":1968,"Ġdropped":1969,"Ġph":1970,"Ġrocks":1971,"ĠEmma":1972,"aughter":1973,"llo":1974,"Ġ3":1975,"ush":1976,"Ġdrink":1977,"Ġbucket":1978,"Ġdes":1979,"Ġca":1980,"adow":1981,"ces":1982,"Ġpurple":1983,"Ġswam":1984,"Ġfarm":1985,"Ġresp":1986,"Ġtaking":1987,"Ġmail":1988,"Ġorange":1989,"Ġthough":1990,"ions":1991,"And":1992,"Ġshapes":1993,"Ġpast":1994,"col":1995,"Ġcow":1996,"Ġstu":1997,"ĠThank":1998,"Ġwoke":1999,"Ġbench":2000,"Ġsounds":2001,"Ġaf":2002,"ung":2003,"ity":2004,"sy":2005,"Ġwondered":2006,"Ġbusy":2007,"Ġfit":2008,"Ġtiny":2009,"Ġob":2010,"Ġnose":2011,"Ġsitting":2012,"Ġnest":2013,"Ġrainbow":2014,"ese":2015,"Ġdaughter":2016,"Ġtakes":2017,"Ġmark":2018,"Ġmad":2019,"fish":2020,"Ġcou":2021,"Ġkite":2022,"to":2023,"ĠO":2024,"read":2025,"Ġholding":2026,"weet":2027,"Ġnothing":2028,"Ġcomes":2029,"Ġjuice":2030,"Ġarms":2031,"thday":2032,"Ġpig":2033,"Ġcoat":2034,"og":2035,"ĠFluffy":2036,"ining":2037,"Ġcir":2038,"ĠInside":2039,"Ġbranch":2040,"raid":2041,"Ġrelieved":2042,"pper":2043,"Ġafraid":2044,"cing":2045,"ose":2046,"idge":2047,"Ġdriver":2048,"Ġmil":2049,"Ġforever":2050,"vered":2051,"Ġspoon":2052,"Ġcute":2053,"Ġcarry":2054,"Ġgift":2055,"Ġsick":2056,"Ġboun":2057,"Ġlift":2058,"sting":2059,"Ġpeace":2060,"Of":2061,"Ġpromise":2062,"ours":2063,"ĠFinally":2064,"Ġhuge":2065,"Ġact":2066,"Ġtou":2067,"Ġtouched":2068,"Ġpatient":2069,"unt":2070,"Ġking":2071,"Ġround":2072,"cer":2073,"sc":2074,"Ġhello":2075,"ĠCome":2076,"Ġbirthday":2077,"Ġfing":2078,"Ġletter":2079,"Ġgrab":2080,"Ġintere":2081,"Ġexciting":2082,"let":2083,"Ġsunny":2084,"Ġcheese":2085,"eth":2086,"Ġonto":2087,"Ġlaughing":2088,"Ġdays":2089,"board":2090,"Ġjourney":2091,"Ġgigg":2092,"Ġband":2093,"Ġcreature":2094,"Ġdisco":2095,"ĠMama":2096,"ittens":2097,"Ġbread":2098,"Hey":2099,"arp":2100,"Ġret":2101,"Ġimag":2102,"ped":2103,"shine":2104,"Ġlife":2105,"Ġkick":2106,"Ġbush":2107,"gged":2108,"Ġhope":2109,"Ġpower":2110,"Ġcraw":2111,"Ġshell":2112,"Ġcozy":2113,"Ġswimming":2114,"Tommy":2115,"Ġinc":2116,"Ġbottle":2117,"Ġmist":2118,"Ġsharp":2119,"Ġwra":2120,"gg":2121,"Ġsuc":2122,"Ġcomfort":2123,"Ġinstead":2124,"Ġwhist":2125,"Ġmilk":2126,"Ġwatching":2127,"Ġreturn":2128,"Ġear":2129,"ness":2130,"Ġspin":2131,"alm":2132,"Ġaccidentally":2133,"Ġeas":2134,"Ġsunshine":2135,"ten":2136,"ĠSoon":2137,"Ġcave":2138,"pa":2139,"ĠSammy":2140,"Ġspo":2141,"Ġputs":2142,"Ġlucky":2143,"Ġtalked":2144,"Ġhoney":2145,"Ġpudd":2146,"Ġpointed":2147,"Ġgives":2148,"Ġcollect":2149,"Ġgather":2150,"itch":2151,"Ġroad":2152,"Ġent":2153,"Later":2154,"Ġsmiling":2155,"Ġbought":2156,"Ġanyone":2157,"Ġhor":2158,"Ġsearched":2159,"Ġlater":2160,"Ġce":2161,"Ġfan":2162,"Ġsandw":2163,"ball":2164,"round":2165,"itten":2166,"Ġapples":2167,"els":2168,"blem":2169,"irt":2170,"Ġproblem":2171,"Ġmeet":2172,"ize":2173,"Bob":2174,"Ġmach":2175,"Lucy":2176,"Ġwom":2177,"Ġloves":2178,"Ġinteresting":2179,"Good":2180,"ÅĵI":2181,"Ġwoman":2182,"Ġplane":2183,"ĠTweet":2184,"Ġkiss":2185,"Ġpres":2186,"Ġhealthy":2187,"eb":2188,"Ġpile":2189,"Ġtasty":2190,"Ġducks":2191,"ub":2192,"Ġvill":2193,"ĠJimmy":2194,"ove":2195,"Ġwide":2196,"ont":2197,"amed":2198,"aur":2199,"Ġadm":2200,"Ġeag":2201,"Ġspid":2202,"Ġclever":2203,"Ġcrayons":2204,"Ġprot":2205,"Ġmatter":2206,"Ġtrouble":2207,"erly":2208,"ndpa":2209,"Ġzoom":2210,"Ġclouds":2211,"owed":2212,"ĠWith":2213,"Ġstorm":2214,"Ġperson":2215,"Ġpath":2216,"cks":2217,"Ġpill":2218,"Ġfeather":2219,"Ġrope":2220,"Ġpop":2221,"Ġshining":2222,"Ġprotect":2223,"Ġsmelled":2224,"Ġfront":2225,"Ġhon":2226,"Ġbutton":2227,"Ġpract":2228,"Ġspotted":2229,"Ġscreamed":2230,"Ġzoo":2231,"Ġminut":2232,"ĠEll":2233,"Ġpresent":2234,"Come":2235,"Ġap":2236,"Ġmud":2237,"Ġval":2238,"Ġrespect":2239,"Ġsaf":2240,"Ġdanced":2241,"Ġcheer":2242,"Ġorgan":2243,"Jim":2244,"Ġpar":2245,"Ġquest":2246,"ond":2247,"Ġappeared":2248,"Ġwhich":2249,"Ġpuzz":2250,"Ġseat":2251,"Molly":2252,"Ġteach":2253,"Ġmyster":2254,"Ġsnowman":2255,"Just":2256,"isa":2257,"Ġsnake":2258,"Ġthin":2259,"ert":2260,"ale":2261,"Ġwild":2262,"Ġasleep":2263,"Ġlovely":2264,"Ġsur":2265,"Ġanswer":2266,"epend":2267,"Ġwearing":2268,"Ġgently":2269,"Ġneighbor":2270,"oose":2271,"Mum":2272,"Ġbark":2273,"Ġhorse":2274,"Ġgiant":2275,"Ġplaces":2276,"Ġgoes":2277,"Ġwhole":2278,"ometimes":2279,"Ġsearch":2280,"Ġsplas":2281,"Every":2282,"St":2283,"Ġcorner":2284,"Ġimpress":2285,"ular":2286,"Ġdirt":2287,"Ġmed":2288,"Ġshr":2289,"een":2290,"Ġtries":2291,"Ġtrip":2292,"Ġconfused":2293,"ĠEmily":2294,"Ġlive":2295,"Ġmind":2296,"Ġdi":2297,"ato":2298,"la":2299,"Ġrolled":2300,"Ġcard":2301,"Ġslid":2302,"Ġtasted":2303,"nic":2304,"cean":2305,"Ġash":2306,"Ġocean":2307,"In":2308,"Ġsupp":2309,"Ġforgive":2310,"Ġpicnic":2311,"Ġrude":2312,"Ġmachine":2313,"ex":2314,"Ġspent":2315,"ĠGo":2316,"Ġdrive":2317,"Ġteeth":2318,"Ġser":2319,"ssed":2320,"itty":2321,"Ġphone":2322,"ĠHow":2323,"Ġoven":2324,"Ġpan":2325,"Ġpour":2326,"Ġlast":2327,"Ġcalm":2328,"Ġpretended":2329,"Ġdelight":2330,"Ġcookie":2331,"Ġfurry":2332,"Ġspider":2333,"izz":2334,"Ġfeet":2335,"Ġfaces":2336,"unk":2337,"Ġlay":2338,"Ġworm":2339,"Ġring":2340,"ĠCh":2341,"Ġrec":2342,"umber":2343,"Ġhelpful":2344,"Ġlad":2345,"ĠMittens":2346,"Ġeventually":2347,"Ġwip":2348,"Ġchick":2349,"Ġwave":2350,"Ġmountain":2351,"Ġsal":2352,"Ġban":2353,"Ġemb":2354,"Ġtalking":2355,"ones":2356,"Ġrob":2357,"Ġfold":2358,"Ġshy":2359,"Ġcart":2360,"Ġtomorrow":2361,"Ġsel":2362,"Ġchocol":2363,"Ġtid":2364,"ĠJenny":2365,"Ġspread":2366,"Ġvillage":2367,"arge":2368,"ife":2369,"Ġremind":2370,"Ġign":2371,"Ġbubble":2372,"Ġtun":2373,"Ġcoin":2374,"Ġfoot":2375,"Ġcouch":2376,"Ġwrite":2377,"Ġladder":2378,"Ġbuilding":2379,"Ġpush":2380,"Ġfighting":2381,"Ġsmooth":2382,"Ġtreats":2383,"hile":2384,"Ġwore":2385,"Ġchased":2386,"Ġtool":2387,"ighed":2388,"Ġblew":2389,"Ġstret":2390,"lex":2391,"My":2392,"Soon":2393,"arra":2394,"Ġbugs":2395,"Ġembarra":2396,"Ġhiding":2397,"Ġpool":2398,"Ġcross":2399,"Ġwaiting":2400,"oph":2401,"Ġknee":2402,"Ġrobot":2403,"Ġneckl":2404,"Ġstep":2405,"Ġpuddle":2406,"mo":2407,"Ġfinish":2408,"Ġshelf":2409,"Ġbell":2410,"Ġcoo":2411,"not":2412,"als":2413,"Ġsongs":2414,"Ġstir":2415,"ator":2416,"Ġwhenever":2417,"Ġselfish":2418,"Ġant":2419,"Ġmaybe":2420,"Ġcannot":2421,"Ġstring":2422,"Ġstra":2423,"Ġchocolate":2424,"ult":2425,"Ġsol":2426,"Ġtaste":2427,"Ġspe":2428,"Ġrep":2429,"Ġhum":2430,"Ġple":2431,"Ġlarge":2432,"Mama":2433,"Ġpaw":2434,"Ġnet":2435,"ĠJake":2436,"box":2437,"Ġsack":2438,"Ġleaf":2439,"Ġscar":2440,"Ġfixed":2441,"ĠSt":2442,"lebr":2443,"Ġbarked":2444,"Ġtidy":2445,"umpy":2446,"Ġbanan":2447,"Ġwash":2448,"ĠEverywhere":2449,"ĠSometimes":2450,"Ġspray":2451,"Ġstone":2452,"old":2453,"ĠJust":2454,"hnn":2455,"Ġcelebr":2456,"Ġgen":2457,"Ġcloth":2458,"Please":2459,"Ġcrab":2460,"ĠLe":2461,"Dad":2462,"Ġpeaceful":2463,"Ġcolour":2464,"ungle":2465,"ĠPlease":2466,"hnny":2467,"Ġhel":2468,"ird":2469,"oin":2470,"lice":2471,"Ġmissed":2472,"Ġdeter":2473,"Ġjungle":2474,"Ġ'":2475,"iger":2476,"arm":2477,"Now":2478,"Ġlanded":2479,"Ġdeterm":2480,"Ġforward":2481,"Ġembarrassed":2482,"Ġnecklace":2483,"Sarah":2484,"Ġhonest":2485,"Ġjumping":2486,"airs":2487,"elly":2488,"Ġbat":2489,"ĠTheir":2490,"Ġdecor":2491,"dge":2492,"Ġtrust":2493,"Ġhears":2494,"Ġmoon":2495,"orry":2496,"Ġsticks":2497,"ĠTV":2498,"Ġshirt":2499,"Ġcreative":2500,"Ġsharing":2501,"aking":2502,"Ġtea":2503,"most":2504,"Ġknocked":2505,"Ġcarrots":2506,"Ġdisappoin":2507,"Ġsuccess":2508,"Ġmeadow":2509,"ying":2510,"getable":2511,"Ġwhis":2512,"Ġstood":2513,"Ġgener":2514,"Ġvegetable":2515,"Ġbal":2516,"ĠDon":2517,"Ġmeant":2518,"Ġlegs":2519,"Ġtightly":2520,"Ġbreath":2521,"Ġplate":2522,"Ġalmost":2523,"Ġashamed":2524,"ned":2525,"Ġemp":2526,"Ġsour":2527,"Ġgray":2528,"dle":2529,"Ġgrew":2530,"Ġtells":2531,"Ġempty":2532,"ĠSome":2533,"Ġpillow":2534,"ground":2535,"ony":2536,"Ġgas":2537,"Ġsplash":2538,"Ġwhistle":2539,"ĠOn":2540,"ian":2541,"Ġunderstood":2542,"Be":2543,"Ġsheep":2544,"Ġber":2545,"Ġcarried":2546,"den":2547,"ĠLisa":2548,"Ġyelled":2549,"ĠWhy":2550,"To":2551,"Ġlem":2552,"ĠTeddy":2553,"ustr":2554,"arl":2555,"ĠAnn":2556,"Ġnods":2557,"erp":2558,"vous":2559,"Ġsave":2560,"Ġpolice":2561,"Ġdisappointed":2562,"Ġsnacks":2563,"Ġhours":2564,"Ġnut":2565,"ital":2566,"Ġwhisp":2567,"Ġjew":2568,"Where":2569,"Ġthese":2570,"hin":2571,"ork":2572,"Ġhosp":2573,"ets":2574,"Ġsparkly":2575,"Ġgold":2576,"Ġhospital":2577,"Ġkitten":2578,"ĠEven":2579,"ĠMum":2580,"Ġship":2581,"Ġpay":2582,"ina":2583,"obby":2584,"ĠTogether":2585,"Ġbored":2586,"urse":2587,"Ġline":2588,"Ġgenerous":2589,"Ġfrustr":2590,"Ġtest":2591,"Ġhidden":2592,"Ġtaught":2593,"Ġstanding":2594,"Ġrad":2595,"Ġscarf":2596,"iff":2597,"Ġchew":2598,"Ġreturned":2599,"Ġminutes":2600,"Ġpizz":2601,"Ġknowing":2602,"Ġgroup":2603,"Ġhur":2604,"Ġplants":2605,"Ġeasy":2606,"Ġblow":2607,"Ġbedroom":2608,"Ġpolite":2609,"Ġmysterious":2610,"Ġwaves":2611,"Ġglass":2612,"Ġsighed":2613,"Ġshore":2614,"Ġpri":2615,"Ġseed":2616,"Ġwolf":2617,"usie":2618,"Ġseek":2619,"Ġdetermined":2620,"ĠPeter":2621,"kin":2622,"Stop":2623,"Ġpuzzle":2624,"Ġpowerful":2625,"Ġthankful":2626,"Jane":2627,"fl":2628,"Ġclass":2629,"Ġner":2630,"ĠBe":2631,"Ġpir":2632,"Ġsandwich":2633,"Ġfig":2634,"Ġsleepy":2635,"Ġprince":2636,"Ġpassed":2637,"Ġdrew":2638,"'d":2639,"Ġfinger":2640,"Ġjelly":2641,"Ġpizza":2642,"Ġnervous":2643,"Ġfrustrated":2644,"Ġspicy":2645,"Ġgun":2646,"Ġspoil":2647,"Ġmatch":2648,"Ġfancy":2649,"Ġmessy":2650,"osaur":2651,"work":2652,"Ġgate":2653,"There":2654,"Ġbridge":2655,"Ġlock":2656,"Ġkissed":2657,"Ġtick":2658,"aul":2659,"Ġcloset":2660,"Ġfear":2661,"Ġreg":2662,"af":2663,"Ġfeed":2664,"Ġmot":2665,"Ġsold":2666,"Ġwis":2667,"Ġgathered":2668,"oop":2669,"Ġav":2670,"Ġexcite":2671,"Ġpoor":2672,"Ġcirc":2673,"ote":2674,"Ġhang":2675,"Ġcaterp":2676,"Ġcaterpill":2677,"Ġesc":2678,"Ġflag":2679,"Ġpin":2680,"Ġgrumpy":2681,"Ġvan":2682,"iddle":2683,"ella":2684,"Ġdinosaur":2685,"Ġyourself":2686,"ano":2687,"issors":2688,"uce":2689,"Ġanswered":2690,"Ġcries":2691,"Are":2692,"Ġoften":2693,"itter":2694,"ĠZ":2695,"Ġtwirl":2696,"selves":2697,"Ġchest":2698,"sist":2699,"Ġscissors":2700,"Ġhopping":2701,"Ġtears":2702,"pack":2703,"gly":2704,"mb":2705,"Sorry":2706,"Ġmummy":2707,"ĠRex":2708,"Ġugly":2709,"era":2710,"Ġburn":2711,"Ġcand":2712,"ensive":2713,"Ġdeer":2714,"Ġdrop":2715,"illed":2716,"Ġfil":2717,"Ġexcitement":2718,"izzy":2719,"Ġcaterpillar":2720,"Ġlit":2721,"Ġworking":2722,"Ġmiddle":2723,"Ġexpensive":2724,"Ġscr":2725,"Ġsaved":2726,"Ġtaken":2727,"ĠBr":2728,"Ġok":2729,"Ġtrue":2730,"Ġwagged":2731,"Ġones":2732,"Ġpleased":2733,"Ġcrown":2734,"Ġspend":2735,"Ġboring":2736,"Ġpicks":2737,"Ġleg":2738,"que":2739,"oof":2740,"ugar":2741,"Ġvase":2742,"Ġtent":2743,"Ġasking":2744,"body":2745,"Jimmy":2746,"ual":2747,"ĠBl":2748,"Ġbrush":2749,"Ġtie":2750,"ates":2751,"Ġvegetables":2752,"ecially":2753,"Ġgiggled":2754,"Ġboss":2755,"Who":2756,"ete":2757,"Their":2758,"Ġmistake":2759,"Ġcage":2760,"ser":2761,"Ġgets":2762,"light":2763,"Ġrocket":2764,"Ġcap":2765,"Ġmir":2766,"ĠLeo":2767,"Ġcomfortable":2768,"Ġsugar":2769,"Ġeld":2770,"Ġstuff":2771,"Ġpacked":2772,"Sp":2773,"ĠJohnny":2774,"Ġdancing":2775,"pecially":2776,"Ġespecially":2777,"Ġwander":2778,"Ġclown":2779,"Ġmedic":2780,"Ġnumber":2781,"Ġpress":2782,"Ġsight":2783,"Ġknight":2784,"ushed":2785,"ggs":2786,"ots":2787,"Ġfruits":2788,"iness":2789,"Ġeggs":2790,"Ġlying":2791,"Ġdrum":2792,"Ġfake":2793,"Ġdest":2794,"ror":2795,"Ġmedicine":2796,"Ġwalks":2797,"Ġdistance":2798,"aged":2799,"Ġglue":2800,"Ġsplashed":2801,"Ġsweetie":2802,"Ġbake":2803,"Ġflut":2804,"Ġbone":2805,"Ġdrawing":2806,"Ġmoving":2807,"Ġdisappeared":2808,"ha":2809,"Ġweek":2810,"ĠOK":2811,"Ġlead":2812,"Ġsmelly":2813,"Ġclap":2814,"Ġbecome":2815,"Ġlemon":2816,"Ġchange":2817,"Ġpray":2818,"Ġfeathers":2819,"Ġmoms":2820,"Ġlose":2821,"Ġmov":2822,"Ġlicked":2823,"Ġcalling":2824,"ĠIf":2825,"Ġtwist":2826,"Ġdogs":2827,"Ġbathroom":2828,"Ġplayground":2829,"ory":2830,"yal":2831,"Ġfis":2832,"Me":2833,"Ġlazy":2834,"enny":2835,"Sally":2836,"Ġroar":2837,"Ġelderly":2838,"Ġweak":2839,"Ġincred":2840,"Ġcri":2841,"Ġgar":2842,"?\".":2843,"Ġbody":2844,"Ġhorn":2845,"Ġexam":2846,"Ġcrack":2847,"Gra":2848,"Joe":2849,"Ġquestions":2850,"Ġadd":2851,"Ġwrote":2852,"Billy":2853,"Ġyog":2854,"Ġyours":2855,"Ġnoisy":2856,"Ġfather":2857,"Ġmirror":2858,"uggest":2859,"Ġmic":2860,"Ġnod":2861,"Ġsuggest":2862,"elp":2863,"ating":2864,"eez":2865,"Ġfluffy":2866,"Ġskipped":2867,"Ġed":2868,"Ġwheel":2869,"Ġeager":2870,"Ġloyal":2871,"Ġlamp":2872,"Ġdish":2873,"Ġext":2874,"Ġclear":2875,"Ġfamous":2876,"land":2877,"Ġdig":2878,"Ġstones":2879,"Ġruined":2880,"ĠAt":2881,"ination":2882,"Ġrich":2883,"Ġrare":2884,"Ġord":2885,"ĠEnd":2886,"Ġtape":2887,"Ġsell":2888,"Ġdrank":2889,"Ġcontent":2890,"Ġfigure":2891,"Ġqueen":2892,"Ġmarch":2893,"Ġincredible":2894,"Ġglow":2895,"Ġmap":2896,"Ġshows":2897,"hip":2898,"Ġrid":2899,"ti":2900,"Ġcheck":2901,"Ġjuicy":2902,"Ġsoap":2903,"Ġcovered":2904,"Ġind":2905,"Ġballs":2906,"Ġsailed":2907,"imp":2908,"Ġrelax":2909,"Ġaw":2910,"Amy":2911,"Ġshoot":2912,"illi":2913,"Ġteam":2914,"ately":2915,"Ġmeasure":2916,"Ġdecide":2917,"Ġrealised":2918,"umbled":2919,"Ġdiscovered":2920,"Ġcoins":2921,"Ġneeds":2922,"Ġborrow":2923,"Ġswan":2924,"Ġstraw":2925,"fic":2926,"Ġadventur":2927,"ĠBlue":2928,"Jill":2929,"cept":2930,"ĠNo":2931,"Help":2932,"Ġcleaned":2933,"Ġbranches":2934,"Ġtowel":2935,"Ġboys":2936,"Ġextra":2937,"Ġham":2938,"ĠLittle":2939,"asing":2940,"Well":2941,"Ġboard":2942,"Ġchicken":2943,"Ġbarn":2944,"Ġmod":2945,"Ġtiger":2946,"Ġmotor":2947,"Ġtag":2948,"Ġadventurous":2949,"Ġjoke":2950,"Ġdiffic":2951,"Ġoffered":2952,"Ġfine":2953,"keep":2954,"Ġbalance":2955,"Ġlifted":2956,"ique":2957,"Ġbubbles":2958,"Ġcolourful":2959,"Ġfrown":2960,"Ġturt":2961,"Ġeye":2962,"Ġthick":2963,"Mummy":2964,"Ġdifficult":2965,"Ġbottom":2966,"Ġtrack":2967,"Ġtoug":2968,"alous":2969,"Ġorganized":2970,"Ġcover":2971,"Ġhappening":2972,"Ġunique":2973,"rag":2974,"Ġjealous":2975,"Ġdolp":2976,"Ġhose":2977,"port":2978,"Ġknife":2979,"Ġweird":2980,"Ġisland":2981,"ĠSusie":2982,"cil":2983,"Ġgarage":2984,"Ġfright":2985,"Ġmanaged":2986,"lla":2987,"imed":2988,"Ġhurts":2989,"Ġpencil":2990,"Ġword":2991,"Sue":2992,"ject":2993,"Ġcrawled":2994,"Ġcost":2995,"Ġlearning":2996,"Ġarg":2997,"Spot":2998,"Ġcircle":2999,"ĠMark":3000,"Ġsaying":3001,"Ġkindness":3002,"ured":3003,"Ġberries":3004,"Ġonce":3005,"olog":3006,"Ġmighty":3007,"Ġballoons":3008,"Ġtough":3009,"Ġpointing":3010,"Ġchase":3011,"Ġbald":3012,"Ġfavour":3013,"ready":3014,"Ġwand":3015,"Ġter":3016,"lies":3017,"keeper":3018,"Ġshake":3019,"und":3020,"iv":3021,"ĠBobby":3022,"Ġjewel":3023,"Ġlouder":3024,"ĠBrown":3025,"ipper":3026,"Ġadded":3027,"ages":3028,"Ġbatter":3029,"Ġsil":3030,"Ġhunt":3031,"Ġunus":3032,"Ġguit":3033,"Ġharder":3034,"Ġguess":3035,"Ġapolog":3036,"Ġedge":3037,"head":3038,"Ġalready":3039,"Ġfour":3040,"Ġang":3041,"Ġspun":3042,"Ġfavourite":3043,"Ġfool":3044,"Ġnorm":3045,"Ġwhale":3046,"How":3047,"Ġunusual":3048,"Ġlibr":3049,"Ġvalu":3050,"ipp":3051,"rage":3052,"alk":3053,"Ġenjoying":3054,"ĠKitty":3055,"Ġdizzy":3056,"aw":3057,"Ġhats":3058,"Ġpump":3059,"Ġbelonged":3060,"Ġgrace":3061,"Ġwrapped":3062,"Ġcheerful":3063,"Ġsmoke":3064,"uggled":3065,"Ġimpressed":3066,"Ġstrawber":3067,"Ġtrucks":3068,"Ġrecord":3069,"Ġgiving":3070,"Ġsword":3071,"Ġmarket":3072,"Ġgrown":3073,"Ġref":3074,"Ġlaughs":3075,"Ġtrunk":3076,"Ġnormal":3077,"anged":3078,"Ġgrand":3079,"Ġhero":3080,"Ġears":3081,"Ġguitar":3082,"Ġloudly":3083,"ola":3084,"illiant":3085,"Ġharm":3086,"Ġturtle":3087,"Here":3088,"Ġbanana":3089,"Ġproudly":3090,"Ġboxes":3091,"Ġscare":3092,"ature":3093,"ilt":3094,"Ġbrilliant":3095,"ery":3096,"Ġchoose":3097,"Ġbrothers":3098,"Ġcircles":3099,"Ġterri":3100,"Ġbossy":3101,"Ġdreamed":3102,"Ġagainst":3103,"Ġescape":3104,"ym":3105,"Ġgoat":3106,"Ġinvited":3107,"Ġskin":3108,"Ġcab":3109,"Ġhelps":3110,"gy":3111,"cient":3112,"Ġcompet":3113,"Ġpil":3114,"ipe":3115,"Ġpainting":3116,"Ġmeans":3117,"Ġmelt":3118,"Ġfrightened":3119,"Ġaccept":3120,"fast":3121,"Ġpee":3122,"Ġflash":3123,"Ġsafely":3124,"Ġdepend":3125,"Ġbuttons":3126,"Ġslipped":3127,"Ġdesign":3128,"Ġstubb":3129,"Ġbirdie":3130,"Ġjack":3131,"ĠDan":3132,"Ġwrap":3133,"Ġvaluable":3134,"Ġcabin":3135,"Ġcrayon":3136,"ĠEllie":3137,"Ġwake":3138,"Ġstream":3139,"ĠFred":3140,"Ġwalls":3141,"Ġhappiness":3142,"ouses":3143,"Ġbreakfast":3144,"Ġlog":3145,"erry":3146,"Ġancient":3147,"edient":3148,"Ġstudy":3149,"Ġsuccessful":3150,"Ġclay":3151,"emo":3152,"orge":3153,"Ġknows":3154,"Ġfoolish":3155,"Ġtoast":3156,"Ġfalls":3157,"ye":3158,"Ġfridge":3159,"Ġlean":3160,"Ġstubborn":3161,"Ġunl":3162,"Ġnicely":3163,"atch":3164,"Ġshape":3165,"apping":3166,"omed":3167,"Ġfier":3168,"Ġcudd":3169,"ĠPete":3170,"Ġrough":3171,"Ġdreams":3172,"Ġmovie":3173,"Ġspace":3174,"Ġhouses":3175,"Ġcity":3176,"Ġnosy":3177,"Ġbloom":3178,"Ġdelicate":3179,"Ġobedient":3180,"Ġfierce":3181,"ĠMy":3182,"Ġoffice":3183,"Ġtomato":3184,"Ġfat":3185,"Ġgrandpa":3186,"ado":3187,"laimed":3188,"az":3189,"Ġicy":3190,"Ġcompetit":3191,"Ġsuggested":3192,"ĠToday":3193,"Ġshark":3194,"Ġdead":3195,"Ġnotice":3196,"Ġwagon":3197,"pes":3198,"Ġexclaimed":3199,"Ġmem":3200,"Ġkinds":3201,"Ġmixed":3202,"Ġwiped":3203,"Ġcher":3204,"Ġuseful":3205,"ext":3206,"Ġpoured":3207,"Ġshells":3208,"uth":3209,"ÅĵLet":3210,"Ġstri":3211,"ĠBobo":3212,"Ġlights":3213,"Ġtools":3214,"Ġlocked":3215,"Ġsounded":3216,"Ġthu":3217,"Ġstove":3218,"Ġexcitedly":3219,"Ġexplored":3220,"Ġaunt":3221,"wards":3222,"Ġegg":3223,"ĠRose":3224,"Ġfrag":3225,"eorge":3226,"Ġrose":3227,"!\".":3228,"Ġson":3229,"oppy":3230,"Ġshadow":3231,"Ġtimes":3232,"arry":3233,"Ġcro":3234,"Ġenc":3235,"ĠTweety":3236,"Ġbags":3237,"Ġfountain":3238,"ention":3239,"Ġthemselves":3240,"oot":3241,"Ġstumbled":3242,"Ġbushes":3243,"Ġweal":3244,"ache":3245,"dom":3246,"Ġlow":3247,"Ġshowing":3248,"Ġspoiled":3249,"Ġfingers":3250,"Ġperform":3251,"Ġlab":3252,"Ġabove":3253,"vice":3254,"Ġthoughtful":3255,"Ġresc":3256,"Ġindepend":3257,"kn":3258,"Ġsmaller":3259,"Ġwitch":3260,"Ġdough":3261,"Em":3262,"Ġfragile":3263,"na":3264,"Ġdependable":3265,"ray":3266,"Ġraced":3267,"Ġjog":3268,"arth":3269,"Ġplayful":3270,"inal":3271,"Ġseem":3272,"Ġhelm":3273,"Ġspinning":3274,"Ġeng":3275,"Ġtele":3276,"corn":3277,"Ġclock":3278,"Ġbrightly":3279,"ines":3280,"Ġprint":3281,"Ġrode":3282,"Ġstretch":3283,"Ġparrot":3284,"ormous":3285,"Ġdelighted":3286,"Ġbuilt":3287,"Ġadmired":3288,"Ġenormous":3289,"Ġlaw":3290,"Ġkicked":3291,"ĠU":3292,"Ġroof":3293,"Ġcounted":3294,"Ġjam":3295,"Ġswe":3296,"Ġrat":3297,"Ġpractice":3298,"reen":3299,"Ġorig":3300,"Ġways":3301,"Ġchanged":3302,"Ġshone":3303,"Ġsunfl":3304,"Ġcop":3305,"ĠElla":3306,"Ġreminded":3307,"Ġtwig":3308,"Ġacorn":3309,"ither":3310,"Ġcam":3311,"ience":3312,"Ġsniff":3313,"Ġzip":3314,"eeze":3315,"Ġhammer":3316,"Ġindependent":3317,"ĠYour":3318,"Ġusing":3319,"Ġbitter":3320,"Ġhanded":3321,"Ġwhispered":3322,"Ġhoop":3323,"mbre":3324,"known":3325,"Ġchose":3326,"Ġchir":3327,"anut":3328,"Ġloll":3329,"Ġjolly":3330,"Ġumbre":3331,"ĠMrs":3332,"Ġcone":3333,"Ġtunn":3334,"Ġsolve":3335,"Ġstronger":3336,"Ġbees":3337,"Ġserious":3338,"ipop":3339,"ĠMar":3340,"Ġoriginal":3341,"Ġtummy":3342,"Ġsteal":3343,"Ġbeak":3344,"Ġbrace":3345,"Ġterrible":3346,"ÅĵYes":3347,"Ġmis":3348,"Ġpopcorn":3349,"Ġfre":3350,"Ġlollipop":3351,"Ġpainted":3352,"Ġboats":3353,"Ġallowed":3354,"Ġhairy":3355,"ict":3356,"Ġmoder":3357,"iable":3358,"Ġsauce":3359,"Ġcleaning":3360,"Ġunknown":3361,"Ġleaving":3362,"Ġdust":3363,"ĠBella":3364,"Ġgasped":3365,"Ġfinding":3366,"Ġjoined":3367,"Ġguard":3368,"Ġsalad":3369,"Ġpotato":3370,"het":3371,"Ġbean":3372,"Ġpumpkin":3373,"See":3374,"upid":3375,"iew":3376,"ĠBu":3377,"Ġpicking":3378,"Ġclum":3379,"inary":3380,"Ġdove":3381,"anger":3382,"Ġbump":3383,"ĠNemo":3384,"Ġhalf":3385,"Ġsink":3386,"amond":3387,"Ġcostum":3388,"uring":3389,"Ġyet":3390,"robe":3391,"Ġmetal":3392,"Ġtank":3393,"Ġbounce":3394,"Ġreliable":3395,"Ġpost":3396,"Ġtor":3397,"Ġview":3398,"Ġdoesn":3399,"Ġthose":3400,"Ġforth":3401,"aghet":3402,"aghetti":3403,"Ġdiamond":3404,"Ġdolphin":3405,"Ġadvice":3406,"com":3407,"ĠSn":3408,"Ġhay":3409,"Ġbarber":3410,"Ġmodern":3411,"Ġstamp":3412,"Ġrubb":3413,"Ġthinking":3414,"Ġgem":3415,"Ġing":3416,"Ġholds":3417,"gu":3418,"ebra":3419,"ĠAlice":3420,"Ġpirate":3421,"ugged":3422,"Ġmarble":3423,"Ġcreate":3424,"Ġregular":3425,"redient":3426,"Ġingredient":3427,"ĠGrandpa":3428,"Ġclumsy":3429,"Ġsleeping":3430,"Ġsearching":3431,"Ġstairs":3432,"Ġwealthy":3433,"Ġyarn":3434,"Ġrushed":3435,"Ġstupid":3436,"Ġprep":3437,"ilty":3438,"Ġtelling":3439,"ĠWhenever":3440,"Ġspaghetti":3441,"Ġguilty":3442,"Ġcheap":3443,"Ġpeanut":3444,"Ġgoose":3445,"Ġchar":3446,"ÅĵWhat":3447,"ophie":3448,"Ġrub":3449,"Ġmagn":3450,"ations":3451,"Ġflex":3452,"ĠFr":3453,"Ġcompass":3454,"Ġopens":3455,"Ġmask":3456,"Ġpatch":3457,"Ġstat":3458,"Ġarrow":3459,"Ġzebra":3460,"Ġengine":3461,"io":3462,"Ġthunder":3463,"Ġknock":3464,"Ġsquare":3465,"illa":3466,"eezed":3467,"irsty":3468,"Ġangel":3469,"Ġcur":3470,"Ġgraceful":3471,"Ġcamera":3472,"Ġumbrella":3473,"cod":3474,"Ġdriving":3475,"ĠMike":3476,"Ġbull":3477,"Ġcrazy":3478,"âĤ¬âĢ":3479,"Ġshiver":3480,"Go":3481,"Ġwashed":3482,"Ġcarrying":3483,"Ġstage":3484,"isk":3485,"Ġpopular":3486,"Ġbeet":3487,"Ġdull":3488,"umbers":3489,"ÅĵIt":3490,"Ġmissing":3491,"ĠDucky":3492,"Mary":3493,"Ġsparkled":3494,"Ġfriendship":3495,"Ġtruth":3496,"Ġmeal":3497,"Ġseeds":3498,"fa":3499,"Ġflexible":3500,"Ġimpressive":3501,"Ġsne":3502,"Ġtied":3503,"Ġpebble":3504,"time":3505,"Ġcareless":3506,"Ġlibrary":3507,"Ġimagined":3508,"Ġcomb":3509,"uper":3510,"Ġdeliver":3511,"Ġnature":3512,"Ġshel":3513,"Ġending":3514,"Ġpatter":3515,"Ġdestro":3516,"Ġjacket":3517,"Ġpersist":3518,"Ġreward":3519,"Ġhandle":3520,"ision":3521,"Ġfresh":3522,"Ġrubbed":3523,"Ġingredients":3524,"Ġdreaming":3525,"Ġshocked":3526,"ric":3527,"Ġprize":3528,"oomy":3529,"ĠDave":3530,"Ġsudden":3531,"Ġcrocod":3532,"Ġload":3533,"Ġenth":3534,"ief":3535,"ibb":3536,"Ġpige":3537,"Ġpattern":3538,"Ġcompassion":3539,"Ġenvel":3540,"Ġflashlight":3541,"Ġthirsty":3542,"Ġsadly":3543,"Ġencou":3544,"Ġstranger":3545,"Ġenthus":3546,"ince":3547,"ĠFin":3548,"Ġwheels":3549,"Ġdesk":3550,"ÅĵLetÃ¢":3551,"ement":3552,"arsh":3553,"Ġreading":3554,"Ġwire":3555,"Ġdiscover":3556,"Ġearly":3557,"Ġmailbox":3558,"Ġfork":3559,"Ġsuit":3560,"Ġnumbers":3561,"Ġtem":3562,"Ġpeeked":3563,"Ġpenny":3564,"Ġbutterflies":3565,"awn":3566,"Ġcryst":3567,"Ġspilled":3568,"Ġbracelet":3569,"Ġtorn":3570,"Ġrug":3571,"Ġgum":3572,"Ġstops":3573,"loo":3574,"Ġrece":3575,"Ġenv":3576,"Ġcomput":3577,"Ġahead":3578,"Ġspring":3579,"bled":3580,"Ġorder":3581,"Ġtowers":3582,"comfort":3583,"Ġsorts":3584,"Ġobject":3585,"ellig":3586,"Ġwing":3587,"Ġbent":3588,"Ġcere":3589,"Ġanx":3590,"Ġsurf":3591,"ĠBear":3592,"Ġpengu":3593,"Ġearth":3594,"Ġintellig":3595,"Ġwarned":3596,"Ġwindows":3597,"ĠMummy":3598,"Ġspoke":3599,"Ġpow":3600,"ĠWhile":3601,"Ġpup":3602,"gest":3603,"Ġhumble":3604,"Ġuncomfort":3605,"Ġavo":3606,"Ġpant":3607,"Ġnote":3608,"Ġuncomfortable":3609,"ĠMandy":3610,"Ġplaced":3611,"Yay":3612,"iches":3613,"Ġsunflower":3614,"Ow":3615,"Ġpale":3616,"Ġtravel":3617,"Ġbadly":3618,"Ġolder":3619,"Ġslides":3620,"Ġanxious":3621,"ikes":3622,"Ġbiggest":3623,"Ġscale":3624,"Ġcompl":3625,"ĠcouldnÃ¢":3626,"Ġstack":3627,"Ġflute":3628,"Ġtrap":3629,"Ġstatue":3630,"Ġscoot":3631,"Ġcounting":3632,"Ġgrowing":3633,"Ġcooking":3634,"ĠPe":3635,"Ġcomplet":3636,"Ġliz":3637,"Ġtunnel":3638,"Ġbeetle":3639,"Ġcelebrate":3640,"host":3641,"Ġmel":3642,"Ġcupboard":3643,"Ġmush":3644,"Ġsofa":3645,"ĠKim":3646,"Ġnail":3647,"Ġharmless":3648,"Ġscatter":3649,"ĠBill":3650,"Ġbeauty":3651,"Ġmole":3652,"Ġdeaf":3653,"Ġvalue":3654,"Ġnurse":3655,"Ġsuper":3656,"Ġperm":3657,"Ġer":3658,"ĠHere":3659,"Ġshut":3660,"Ġpersistent":3661,"Ġjumps":3662,"While":3663,"Ġcrocodile":3664,"Ġhung":3665,"Ġghost":3666,"Ġgifted":3667,"Ġrefused":3668,"Ġcharming":3669,"Ġtrick":3670,"ĠGive":3671,"Ġneat":3672,"Ġnames":3673,"Ġcourage":3674,"opus":3675,"Ġyawn":3676,"Ġflour":3677,"ctopus":3678,"Ġcrane":3679,"Ġcurt":3680,"Ġpretending":3681,"cream":3682,"Ġpony":3683,"Ġcereal":3684,"Ġbase":3685,"Ġsandwiches":3686,"ices":3687,"ĠLola":3688,"Ġraven":3689,"Ġsnuggled":3690,"ĠToby":3691,"Ġcurtain":3692,"Ġsupport":3693,"Ġdestroy":3694,"Ġtur":3695,"Ġordinary":3696,"Ġchasing":3697,"ud":3698,"Ġuniver":3699,"aid":3700,"ĠLook":3701,"Ġquestion":3702,"Ġenvelope":3703,"aches":3704,"Ġdrawer":3705,"Ġtriang":3706,"Ġvi":3707,"Ġcamp":3708,"Ġsett":3709,"Daisy":3710,"used":3711,"Ġcomputer":3712,"Ġoctopus":3713,"Ġattract":3714,"Ġrules":3715,"Ġcrawl":3716,"Ġlively":3717,"Ġsend":3718,"Ġgloomy":3719,"Alice":3720,"Ġcartoon":3721,"aby":3722,"Ġuncle":3723,"Ġintelligent":3724,"ips":3725,"Ġmay":3726,"Ġpiano":3727,"Ġspeed":3728,"Ġpackage":3729,"Ġblueber":3730,"Ġshaking":3731,"cu":3732,"Ġhelmet":3733,"Ġcrystal":3734,"Ġneedle":3735,"Ġmushroom":3736,"Ġturkey":3737,"oe":3738,"ĠEventually":3739,"Ġcollar":3740,"Ġparade":3741,"Ġcreatures":3742,"stri":3743,"uddy":3744,"heart":3745,"ÅĵThat":3746,"Re":3747,"Ġhurry":3748,"Ġtwirled":3749,"Ġphot":3750,"Ġlizard":3751,"illie":3752,"erable":3753,"enry":3754,"ubby":3755,"aff":3756,"orant":3757,"Ġalert":3758,"Ġmiserable":3759,"Ġthief":3760,"gust":3761,"Ġstation":3762,"Ġsoldier":3763,"Ġhunter":3764,"Ġpepper":3765,"ceed":3766,"Ġtask":3767,"arlie":3768,"Ġanywhere":3769,"Ġdug":3770,"Ġdisgust":3771,"Ġbicy":3772,"Ġfireman":3773,"Ġener":3774,"cut":3775,"Ġcarp":3776,"iest":3777,"Ġwishes":3778,"Ġseal":3779,"Ġresist":3780,"Ġled":3781,"Ġvide":3782,"Ġbeep":3783,"Ġignorant":3784,"Ġbandage":3785,"Ġstickers":3786,"coa":3787,"Ġscreen":3788,"Ġradio":3789,"Ġhelpless":3790,"Ġbounced":3791,"tter":3792,"Ġtrash":3793,"Give":3794,"Ġsecond":3795,"Ġleash":3796,"Ġrepe":3797,"Ġpracticed":3798,"Ġmuff":3799,"Ġshine":3800,"Ġchance":3801,"Ġletters":3802,"Ġattractive":3803,"Ġimpat":3804,"Ġmill":3805,"Ġstirred":3806,"Ġcricket":3807,"Ġjeep":3808,"Ġstretched":3809,"Ġnobody":3810,"urb":3811,"Ġthread":3812,"Ġpasta":3813,"Ġcube":3814,"Ġpand":3815,"Ġchubby":3816,"Ġtooth":3817,"ummer":3818,"Ġfu":3819,"Ġpigeon":3820,"ses":3821,"If":3822,"Ġjet":3823,"Ġgir":3824,"Ġcompassionate":3825,"ccol":3826,"ĠGeorge":3827,"Benny":3828,"Ġclub":3829,"ĠCl":3830,"ccoli":3831,"arian":3832,"ĠPolly":3833,"Ġtrump":3834,"Ġdisturb":3835,"orable":3836,"Ġdecorate":3837,"Ġcocoa":3838,"Ġbrighter":3839,"Ġjug":3840,"Ġsteps":3841,"Ġimpatient":3842,"Ġtire":3843,"Ġcompetitive":3844,"Ġfurther":3845,"Ġotter":3846,"Ġrespectful":3847,"Ġsucceed":3848,"Ġtroubled":3849,"Ġpressed":3850,"olin":3851,"Ġitself":3852,"aked":3853,"Ġbet":3854,"Ġostri":3855,"noon":3856,"Ġcandle":3857,"Ġmug":3858,"ĠWh":3859,"Ġafternoon":3860,"Ġattic":3861,"ĠAl":3862,"Ġrestless":3863,"Ġstarts":3864,"Ġpun":3865,"Ġtap":3866,"Ġsomewhere":3867,"Ġribb":3868,"ĠAre":3869,"aurant":3870,"stic":3871,"Ġdess":3872,"Ġquar":3873,"Ġcarpet":3874,"Ġanyway":3875,"Ġshouts":3876,"Ġshoe":3877,"Ġdisgusting":3878,"Ġadorable":3879,"Ġrestaurant":3880,"Ġskip":3881,"Ġleop":3882,"Ġfort":3883,"gn":3884,"Ġpants":3885,"Ġvine":3886,"Ġtray":3887,"Ġnuts":3888,"Ġwaff":3889,"Ġcase":3890,"come":3891,"Ġgor":3892,"Ġfearful":3893,"Ġscrew":3894,"Ġenvious":3895,"Ġsweetheart":3896,"opter":3897,"Ġcards":3898,"Ġallig":3899,"icopter":3900,"Little":3901,"iastic":3902,"Ġdistant":3903,"Ġbroccoli":3904,"Ġenthusiastic":3905,"Ġhipp":3906,"Ġfilthy":3907,"ĠSh":3908,"Ġgiggle":3909,"Ġexper":3910,"Ġtrumpet":3911,"Ġcooked":3912,"Ġhelicopter":3913,"Ġmonkeys":3914,"night":3915,"Grandma":3916,"Ġreco":3917,"Ġpor":3918,"ĠWhere":3919,"irit":3920,"Ġsandbox":3921,"aroo":3922,"angaroo":3923,"Ġhook":3924,"ĠWould":3925,"gging":3926,"Ġbri":3927,"ĠLee":3928,"Ġadmire":3929,"Ġnowhere":3930,"Ġten":3931,"Ġharsh":3932,"Ġbackpack":3933,"Ġsoar":3934,"ĠBrownie":3935,"Ġsent":3936,"Ġbelt":3937,"Ġbatht":3938,"gie":3939,"Ġexplain":3940,"Ġscooter":3941,"Ġants":3942,"llie":3943,"Ġmeas":3944,"opl":3945,"Ġpoem":3946,"eropl":3947,"Ġcountry":3948,"cycle":3949,"Ġbathtub":3950,"Ġpipe":3951,"Ġaeropl":3952,"Ġbarking":3953,"Ġquite":3954,"Ġunpack":3955,"stairs":3956,"Ġcows":3957,"par":3958,"Ġspeak":3959,"Ġkangaroo":3960,"Ġlid":3961,"Ġsquash":3962,"Ġleopard":3963,"Ġmama":3964,"Ġhappier":3965,"Ġspell":3966,"Ġtemp":3967,"Ġrepair":3968,"Ġlistening":3969,"Ġbicycle":3970,"Ġsepar":3971,"imi":3972,"ĠEverything":3973,"Ġsummer":3974,"Ġstared":3975,"Ġcush":3976,"Ġgrabs":3977,"Ġmessage":3978,"Ġbreat":3979,"ĠdidnÃ¢":3980,"uct":3981,"Ġostrich":3982,"Ġfirework":3983,"ĠAlex":3984,"Ġhuman":3985,"Ġloop":3986,"Ġgiven":3987,"Ġcomet":3988,"Ġmule":3989,"hood":3990,"apa":3991,"Ġsort":3992,"Ġimpro":3993,"Jenny":3994,"Ġgorilla":3995,"ĠJoey":3996,"Ġmodest":3997,"Ġpaid":3998,"Ġfinds":3999,"year":4000,"Ġyogurt":4001,"Ġdessert":4002,"Ġmeat":4003,"Ġobser":4004,"Ġviolin":4005,"Ġur":4006,"ĠSophie":4007,"Bye":4008,"Ġhedge":4009,"ipping":4010,"Ġspirit":4011,"ĠSm":4012,"Ġpulls":4013,"Ġtripped":4014,"shed":4015,"Ġjellyfish":4016,"Ġmelon":4017,"Ġsplit":4018,"Ġpaws":4019,"Ġalligator":4020,"Everyone":4021,"Ġrescue":4022,"Ġsize":4023,"Ġholes":4024,"Ġprov":4025,"ucked":4026,"Ġroared":4027,"Ġfive":4028,"Ġforgave":4029,"ĠPat":4030,"Ġcats":4031,"Ġwheat":4032,"Ġpurse":4033,"Ġrecogn":4034,"Ġhippo":4035,"Ġpilot":4036,"Ġhall":4037,"Daddy":4038,"Ġtax":4039,"Ġsheet":4040,"Ġpal":4041,"Ġcact":4042,"Ġinse":4043,"Ġpushing":4044,"ophone":4045,"Ġbikes":4046,"Ġorganize":4047,"ci":4048,"Ġswinging":4049,"Ġsle":4050,"Ġraft":4051,"Ġsalt":4052,"Ġscold":4053,"Ġstarting":4054,"Ġshade":4055,"Ġbehave":4056,"Ġbin":4057,"Ġlightning":4058,"Ġfle":4059,"Ġoat":4060,"Ġrice":4061,"ĠSnow":4062,"Ġhaircut":4063,"Ġtriangle":4064,"eer":4065,"Ġbuzz":4066,"Ġenergy":4067,"iskers":4068,"ĠTweetie":4069,"ÅĵYou":4070,"Ġbur":4071,"Ġknot":4072,"Ġfrowned":4073,"bul":4074,"Ġlear":4075,"aled":4076,"Ġlearnt":4077,"Ġeither":4078,"Ġporch":4079,"Ġmath":4080,"Ġriding":4081,"Ġped":4082,"Ġlip":4083,"lcano":4084,"seum":4085,"Ġtrains":4086,"ebook":4087,"Ġended":4088,"Ġnotebook":4089,"Ġsticker":4090,"iling":4091,"inking":4092,"Ġlend":4093,"Ġwallet":4094,"Ġluck":4095,"Ġevening":4096,"reci":4097,"Ġpanda":4098,"Ġcactus":4099,"Ġjokes":4100,"Ġchalk":4101,"Ġbananas":4102,"Ġpapers":4103,"Ġrod":4104,"Ġmuseum":4105,"Ġsweater":4106,"Ġappreci":4107,"Ġlions":4108,"Ġpalace":4109,"Ġtaxi":4110,"Ġvolcano":4111,"ube":4112,"Ġshopkeeper":4113,"Ġchain":4114,"Ġstrawberry":4115,"Ġbears":4116,"Ġrolling":4117,"Ġboots":4118,"Ġeras":4119,"Ġhadn":4120,"astic":4121,"Ġneighbour":4122,"Ġbarrel":4123,"Ġshakes":4124,"ffe":4125,"Ġmicr":4126,"icer":4127,"ffee":4128,"ooped":4129,"Ġsilver":4130,"urch":4131,"Ġlaund":4132,"Ġalive":4133,"Ġsmells":4134,"Ġmild":4135,"play":4136,"Ġreind":4137,"Ġsock":4138,"ĠRed":4139,"ĠJerry":4140,"Ġlaundry":4141,"Ġsteak":4142,"ĠAndy":4143,"Ġavoc":4144,"Ġink":4145,"Ġpole":4146,"Ġstrugg":4147,"iron":4148,"Ġpushes":4149,"ĠTr":4150,"Ġputting":4151,"Ġvisited":4152,"Ġgoal":4153,"Ġsoftly":4154,"Ġmagnet":4155,"Ġjudge":4156,"edy":4157,"Ġtricks":4158,"Ġdrawings":4159,"Ġmicrophone":4160,"Ġclapping":4161,"Ġpad":4162,"Ġol":4163,"Ġhive":4164,"Ġshield":4165,"Ġtube":4166,"Ġleaned":4167,"Ġcolours":4168,"Ġsailor":4169,"Ġshovel":4170,"Ġairport":4171,"Ha":4172,"Ġzoomed":4173,"Ġfalling":4174,"Ġrag":4175,"Ġbelongs":4176,"Ġshelter":4177,"aggie":4178,"Ġunlock":4179,"Ġsprink":4180,"Ġchecked":4181,"elery":4182,"happy":4183,"Ġinsist":4184,"Ġpenguin":4185,"Ġquarrel":4186,"Ġambul":4187,"Ġclimbing":4188,"Ġmarched":4189,"ĠPaul":4190,"Ġgro":4191,"Ġdisplay":4192,"Ġreindeer":4193,"cast":4194,"hino":4195,"Ġsaus":4196,"ĠBet":4197,"ense":4198,"Ġaeroplane":4199,"Ġdive":4200,"Ġdishes":4201,"ophy":4202,"Ġpolish":4203,"Ġbarks":4204,"ges":4205,"Ġavail":4206,"ĠdonÃ¢":4207,"Ġfields":4208,"Ġgrapes":4209,"Ġsandcast":4210,"Ġambulance":4211,"Ġpeek":4212,"ait":4213,"Ġapologized":4214,"Ġyach":4215,"Ġsoil":4216,"Ġcoffee":4217,"Ġskill":4218,"ĠPapa":4219,"sely":4220,"Ġcostume":4221,"Ġelev":4222,"Ġoy":4223,"Ġtrophy":4224,"Ġfeelings":4225,"Ġplanet":4226,"ĠOr":4227,"Ġhoping":4228,"anic":4229,"Ġfilm":4230,"Ġprun":4231,"Ġart":4232,"Ġrubber":4233,"ron":4234,"Ġunhappy":4235,"Ġdrops":4236,"Ġshrimp":4237,"nger":4238,"ĠBunny":4239,"Ġmedal":4240,"Ġkitty":4241,"âĤ¬âĢľ":4242,"Ġthanks":4243,"Ġraining":4244,"Ġmen":4245,"chanic":4246,"Ġstom":4247,"Ġminute":4248,"Ġelevator":4249,"Ġcelery":4250,"Ġcord":4251,"Ġonion":4252,"Ġrhino":4253,"Ġavailable":4254,"ected":4255,"Ġeraser":4256,"Ġincl":4257,"Ġpage":4258,"Ġshort":4259,"Ġyacht":4260,"reeze":4261,"Ġshouldn":4262,"Ġfisher":4263,"Ġperfectly":4264,"Ġimagine":4265,"Ġwool":4266,"Ġmarry":4267,"Ġwinter":4268,"Ġbasketball":4269,"Ġmechanic":4270,"ĠBuddy":4271,"Ġdiary":4272,"nam":4273,"Ġbul":4274,"Ġherb":4275,"Ġflies":4276,"Ġcomplete":4277,"Ġrever":4278,"Ġappl":4279,"Ġclosely":4280,"Ġcardboard":4281,"Ġinsect":4282,"Ġmagaz":4283,"Ġeagerly":4284,"Ġplayer":4285,"ĠWhiskers":4286,"eath":4287,"Ġjournal":4288,"ĠWill":4289,"Ġbaking":4290,"Ġvend":4291,"Ġquit":4292,"Ġfurn":4293,"Ġglove":4294,"iture":4295,"ĠSmith":4296,"Ġdisag":4297,"Ġfurniture":4298,"Ġstuffed":4299,"Ġtub":4300,"Ġbreaks":4301,"Ġimagination":4302,"Ġbulb":4303,"Ġtreasures":4304,"Ġchurch":4305,"gen":4306,"ecause":4307,"Ġcounter":4308,"any":4309,"Ġwife":4310,"Ġheaded":4311,"Ġcooler":4312,"azz":4313,"Ġpair":4314,"Ġfreez":4315,"Ġfrogs":4316,"Ġtut":4317,"quit":4318,"Ġskull":4319,"mand":4320,"ories":4321,"Ġpit":4322,"Ġknob":4323,"ween":4324,"Ġfactor":4325,"stead":4326,"right":4327,"Ġswitch":4328,"Ġfootball":4329,"place":4330,"Ġoffer":4331,"ides":4332,"Ġsunset":4333,"Ġbetween":4334,"Ġlie":4335,"ifl":4336,"aulifl":4337,"Ġcheek":4338,"Ch":4339,"Ġsym":4340,"Ġswung":4341,"Ġfactory":4342,"Ġcups":4343,"ĠTed":4344,"Ġmotorcycle":4345,"Ġchirp":4346,"Ġmos":4347,"quito":4348,"Ġflame":4349,"Ġtwink":4350,"Ġshouting":4351,"..":4352,"nament":4353,"Ġpainter":4354,"Ġgolf":4355,"Ġpeach":4356,"Ġornament":4357,"kelet":4358,"Ġblowing":4359,"Ġhut":4360,"Ġsung":4361,"affe":4362,"Ġhotel":4363,"Ġseeing":4364,"Ġcaulifl":4365,"Ġfolder":4366,"Ġvendor":4367,"ccer":4368,"ĠMimi":4369,"lass":4370,"Ġvideo":4371,"Ġmixer":4372,"pe":4373,"ab":4374,"izes":4375,"bol":4376,"Ġthrows":4377,"Ġpirates":4378,"Ġcreated":4379,"orses":4380,"Ġheads":4381,"Ġoil":4382,"Ġkay":4383,"Ġframe":4384,"Ġmosquito":4385,"angu":4386,"Ġcushion":4387,"mm":4388,"Ġsoccer":4389,"ĠMaria":4390,"Ġfisherman":4391,"Ġcoal":4392,"ĠBun":4393,"zzy":4394,"Ġsymbol":4395,"Ġhorses":4396,"Ġcable":4397,"ceros":4398,"Ġpopped":4399,"Ġlangu":4400,"Ġwipe":4401,"Ġpine":4402,"ĠBaby":4403,"Ġattention":4404,"Ġskelet":4405,"Ġbattery":4406,"Ġpowder":4407,"Ġcauliflower":4408,"Ġstud":4409,"Ġlaser":4410,"ef":4411,"render":4412,"Ġforgotten":4413,"Ġweather":4414,"ĠLilly":4415,"rod":4416,"Ġlives":4417,"Ġmop":4418,"osie":4419,"Ġcelebrated":4420,"Ġfishing":4421,"Ġax":4422,"Ġrot":4423,"Ġsince":4424,"Ġtrail":4425,"ĠIÃ¢":4426,"elcome":4427,"Ġmaze":4428,"aws":4429,"Ġphoto":4430,"ĠGod":4431,"ites":4432,"Ġyoga":4433,"Ġsurround":4434,"ĠRo":4435,"Ġwaving":4436,"ĠGrace":4437,"Ġslept":4438,"Ġsneak":4439,"Ġanch":4440,"Ġdear":4441,"unately":4442,"Ġgiraffe":4443,"Ġintrod":4444,"Ġrhinoceros":4445,"Ġpoke":4446,"Ġswamp":4447,"Inside":4448,"Ġflea":4449,"Ġpoints":4450,"Ġitch":4451,"Ġpoint":4452,"Ġglowing":4453,"ĠitÃ¢":4454,"Ġfireplace":4455,"Ġbreeze":4456,"ney":4457,"lasses":4458,"Your":4459,"Ġsub":4460,"Ġvet":4461,"Ġsunglasses":4462,"Ġkingdom":4463,"ĠAnnie":4464,"Ġmemories":4465,"ĠCharlie":4466,"Ġtutor":4467,"Ġstreng":4468,"Ġtuna":4469,"Ġiron":4470,"Ġreve":4471,"Ġvest":4472,"spap":4473,"ĠSandy":4474,"Ġpetals":4475,"Ġfog":4476,"Ġmistakes":4477,"Ġaxe":4478,"Ġcomplain":4479,"Ġbaseball":4480,"Ġdancer":4481,"Ġchickens":4482,"Ġparent":4483,"Ġig":4484,"hero":4485,"Ġnewspap":4486,"Ġstrength":4487,"Ġgreedy":4488,"Ġceiling":4489,"ckey":4490,"Ġsquirrels":4491,"Ġhockey":4492,"Ġigloo":4493,"Ġsir":4494,"Ġgrin":4495,"Ġanchor":4496,"Ġskeleton":4497,"rosc":4498,"Ġsniffed":4499,"Ġgrocer":4500,"Ġsuperhero":4501,"Ġargue":4502,"ĠUn":4503,"Ġnapkin":4504,"chie":4505,"Eventually":4506,"Ġgolden":4507,"ues":4508,"Ġhanging":4509,"Ġtrave":4510,"Ġmusician":4511,"medi":4512,"Ġskirt":4513,"ĠTony":4514,"roscope":4515,"Ġstaff":4516,"Ġtemple":4517,"Ġunif":4518,"Ġagree":4519,"Ġsque":4520,"Ġbury":4521,"mediately":4522,"Ġtheater":4523,"Ġdiscu":4524,"Ġuniform":4525,"Ġeaten":4526,"ĠJess":4527,"Ġslipper":4528,"Ġwelcomed":4529,"Ġseas":4530,"Ġshoulder":4531,"Thanks":4532,"Ġzipper":4533,"Ġquietly":4534,"ssible":4535,"Ġmeeting":4536,"Ġlime":4537,"Ġinvest":4538,"istol":4539,"Ġmicroscope":4540,"Ġpinch":4541,"chair":4542,"Ġflapped":4543,"Ġslippery":4544,"Ġaccepted":4545,"Ġfought":4546,"Ġinvestig":4547,"Ġpistol":4548,"erc":4549,"Ġdoors":4550,"Ġminer":4551,"reek":4552,"Ġradish":4553,"Ġplastic":4554,"Ġthrowing":4555,"Ġcalls":4556,"Ġbouncing":4557,"tress":4558,"Today":4559,"Ġmattress":4560,"men":4561,"ĠInstead":4562,"Ġsurrender":4563,"Ġcob":4564,"aces":4565,"house":4566,"Ġpear":4567,"Ġcreek":4568,"Ġvroom":4569,"Ġkayak":4570,"Emma":4571,"tain":4572,"Ġmoves":4573,"Ġsticky":4574,"Qu":4575,"Ġlawy":4576,"Wait":4577,"ĠHenry":4578,"Ġnovel":4579,"alley":4580,"Ġcub":4581,"Ġavocado":4582,"Ġcared":4583,"Ġsuff":4584,"Ġfreezer":4585,"Ġlotion":4586,"aud":4587,"case":4588,"ler":4589,"ison":4590,"ĠMillie":4591,"te":4592,"was":4593,"Ġfauc":4594,"anny":4595,"Ġarmchair":4596,"Ġwriting":4597,"inked":4598,"Ġreef":4599,"Ġmakeup":4600,"Ġmystery":4601,"Ġvalley":4602,"web":4603,"Ġtug":4604,"Ġinvestigate":4605,"Ġnews":4606,"Ġsailing":4607,"Ġcherries":4608,"Ġregret":4609,"Ġcrib":4610,"washer":4611,"imney":4612,"Ġexerc":4613,"Ġoyster":4614,"Ġfaucet":4615,"Ġagre":4616,"Ġsplashing":4617,"ĠKate":4618,"Ġticket":4619,"Ġcollected":4620,"Ġworth":4621,"Ġchimney":4622,"Ġtoil":4623,"Together":4624,"Ġpresents":4625,"Ġdishwasher":4626,"Ġmagazine":4627,"Ġhappens":4628,"Ġsprayed":4629,"Ġwags":4630,"ÅĵItÃ¢":4631,"Next":4632,"Ġprevent":4633,"Ġcobweb":4634,"Ġquack":4635,"Ġveil":4636,"Ġcastles":4637,"Ġentered":4638,"Ġtear":4639,"Sammy":4640,"Ġshrugged":4641,"Ġhar":4642,"Ġpassport":4643,"Ġapplaud":4644,"Ġchess":4645,"Ġseparate":4646,"Ġscolded":4647,"lend":4648,"Ġweigh":4649,"Ġtoilet":4650,"Ġalarm":4651,"ĠDanny":4652,"ives":4653,"Ġblankets":4654,"Ġrake":4655,"Ġignored":4656,"Ġtucked":4657,"Ġlawyer":4658,"Ġchoice":4659,"ived":4660,"Ġhopes":4661,"Ġattach":4662,"Ġcoats":4663,"Ġcandles":4664,"Ġfollows":4665,"Ġkisses":4666,"Ġappro":4667,"Ġclassroom":4668,"ĠRu":4669,"eve":4670,"ring":4671,"Ġpuddles":4672,"Ġeasily":4673,"Ġapart":4674,"ety":4675,"sit":4676,"Ġdisappear":4677,"Ġbeef":4678,"Ġchairs":4679,"Ġburned":4680,"Ġbother":4681,"Ġletting":4682,"Ġstraight":4683,"ĠNext":4684,"eterin":4685,"eterinarian":4686,"Ġyield":4687,"Ġward":4688,"Ġdressed":4689,"Ġcane":4690,"Ġtrusted":4691,"Ġlanguage":4692,"Ġsizes":4693,"Ġveterinarian":4694,"Ġraz":4695,"Ġteleph":4696,"raged":4697,"Ġcaring":4698,"Ġplanes":4699,"Ġwardrobe":4700,"Ġjewelry":4701,"atched":4702,"Ġblinked":4703,"iday":4704,"Ġshower":4705,"Ġrise":4706,"Ann":4707,"Ġmissile":4708,"ĠSu":4709,"Ġkeeping":4710,"Ġlawn":4711,"Ġrequ":4712,"Ġstable":4713,"Ġcabinet":4714,"Ġcrossed":4715,"Ġoak":4716,"ĠHarry":4717,"Ġbookshe":4718,"vision":4719,"Mandy":4720,"Ġstro":4721,"Ġtelephone":4722,"Ġnewspaper":4723,"mend":4724,"Ġclaws":4725,"Ġrooms":4726,"rs":4727,"Ġsigh":4728,"Ġpuzzles":4729,"Ġaut":4730,"Ġtrade":4731,"Ġincre":4732,"ival":4733,"Ġcell":4734,"Ġwhisper":4735,"Ġtornado":4736,"Ġscratch":4737,"una":4738,"anges":4739,"Ġbookcase":4740,"Ġinf":4741,"ampoo":4742,"Ġblueberries":4743,"Ġsnap":4744,"Ġamazement":4745,"ĠMiss":4746,"Ġperfu":4747,"ction":4748,"ommend":4749,"Ġsqueezed":4750,"Ġbookshelf":4751,"Because":4752,"Ġrecommend":4753,"Ġopera":4754,"ĠRosie":4755,"Ġsubway":4756,"Ġpra":4757,"atie":4758,"Ġgym":4759,"Ġdelay":4760,"Ġgrill":4761,"ĠSee":4762,"ĠAb":4763,"Ġrazor":4764,"Ġblouse":4765,"Ġrequest":4766,"Ġcrawling":4767,"ĠHelp":4768,"Ġpur":4769,"Ġpoked":4770,"âĤ¬.":4771,"Ġtelevision":4772,"Ġbill":4773,"Ġhol":4774,"ggy":4775,"Ġfollowing":4776,"omes":4777,"iction":4778,"Ġshampoo":4779,"ĠTrue":4780,"Ġfile":4781,"Ġlicks":4782,"Ġspear":4783,"Ġsqueeze":4784,"Ġholiday":4785,"Ġexperience":4786,"Ġlumber":4787,"Ġimprove":4788,"Ġmint":4789,"Ġperfume":4790,"Ġserve":4791,"Ġdemand":4792,"Ġsteam":4793,"Ġcliff":4794,"Ġringing":4795,"Ġcrow":4796,"fortunately":4797,"ictionary":4798,"Is":4799,"bbie":4800,"Ġribbon":4801,"ah":4802,"Ġimmediately":4803,"Ġhelper":4804,"Ġmuffin":4805,"Ġfest":4806,"Ġgrowled":4807,"Ġisn":4808,"Ġbegged":4809,"Ġdictionary":4810,"Ġmatches":4811,"Ġshrink":4812,"Ġwaste":4813,"Ġblood":4814,"Ġbirdc":4815,"Ġprop":4816,"Ġideas":4817,"Ġwarmth":4818,"ib":4819,"Ġmustache":4820,"Ġsneeze":4821,"ores":4822,"ĠJul":4823,"Ġinvite":4824,"hic":4825,"Ġgear":4826,"Ġbirdcage":4827,"Ġvehic":4828,"ups":4829,"Ġfuel":4830,"Ġalright":4831,"Ġrabbits":4832,"uckily":4833,"asis":4834,"Ġcalend":4835,"Ġweep":4836,"Ġyucky":4837,"Ġflutter":4838,"Ġinstr":4839,"Ġfallen":4840,"Ġmarried":4841,"ĠRe":4842,"Ġberry":4843,"lier":4844,"Ġrail":4845,"Ġrow":4846,"Ġpastry":4847,"Did":4848,"Ġrefre":4849,"ucture":4850,"Ġworms":4851,"Ġstructure":4852,"Ġlaught":4853,"Ġsurprises":4854,"Ġbravely":4855,"Ġbelow":4856,"Ġcalendar":4857,"Ġoasis":4858,"ĠClara":4859,"Ġwandered":4860,"Ġble":4861,"Will":4862,"Ġwigg":4863,"Ġkneel":4864,"ising":4865,"Ġdire":4866,"Ġunderstanding":4867,"Ġhurting":4868,"Ġlaughter":4869,"omeday":4870,"Ġdrain":4871,"Ġpages":4872,"Ok":4873,"Ġhearts":4874,"Ġenter":4875,"Ġairpl":4876,"inky":4877,"Ġitem":4878,"ĠIs":4879,"omob":4880,"Ġharb":4881,"Ġreaches":4882,"Ġapron":4883,"asp":4884,"Ġsafety":4885,"Ġfloat":4886,"Ġcrash":4887,"Ġautomob":4888,"Ġbathe":4889,"Ġburied":4890,"Ġjunk":4891,"ÅĵNo":4892,"Ġbuckle":4893,"Ġadmir":4894,"Ġroot":4895,"Ġcaptain":4896,"Ġstrawberries":4897,"Ġmyself":4898,"achel":4899,"Ġrelaxed":4900,"Ġsandcastle":4901,"oral":4902,"Ġignore":4903,"Ġskills":4904,"Welcome":4905,"Ġplates":4906,"Lisa":4907,"'ve":4908,"Ġwhip":4909,"ĠKing":4910,"Ġspade":4911,"Ġmoments":4912,"ĠFo":4913,"Ġreverse":4914,"htray":4915,"ĠWho":4916,"icing":4917,"Ġquiz":4918,"Ġashtray":4919,"Ġfestival":4920,"ari":4921,"Ġbeamed":4922,"'.":4923,"Ġsnapped":4924,"riger":4925,"Ġsomeday":4926,"cakes":4927,"Ġrefriger":4928,"Ġraise":4929,"Ġreceived":4930,"Yuck":4931,"Ġrefrigerator":4932,"Ġearlier":4933,"Ġtong":4934,"Ġlic":4935,"ĠFreddy":4936,"Ġweap":4937,"Ġvac":4938,"Ġteaching":4939,"Ġmass":4940,"Ġharbor":4941,"ĠPeople":4942,"Ġmodel":4943,"ĠSnowy":4944,"Ġsparkling":4945,"Ġspots":4946,"aped":4947,"Ġinsisted":4948,"Ġsaving":4949,"Ġvanished":4950,"Ġsocks":4951,"Ġbumped":4952,"ĠIts":4953,"Ġthumb":4954,"anna":4955,"Ġdried":4956,"Ġsupply":4957,"ission":4958,"Ġblackboard":4959,"igail":4960,"Ġprepare":4961,"Ġjail":4962,"Ġjewels":4963,"Ġspending":4964,"Ġbalan":4965,"Ġscattered":4966,"ĠBefore":4967,"xy":4968,"Ġtoes":4969,"Ġscooped":4970,"Ġsettled":4971,"Ġpermission":4972,"Ġsparkle":4973,"Ġknown":4974,"ctly":4975,"Ġbreathe":4976,"Ġboot":4977,"Ġyawned":4978,"Ġres":4979,"ĠMay":4980,"With":4981,"amber":4982,"ĠJames":4983,"Ġachie":4984,"Ġdestroyed":4985,"Ġbathrobe":4986,"Ġtease":4987,"Ġremain":4988,"Ġhardly":4989,"Ġencouraged":4990,"Ġreplace":4991,"Ġwaffle":4992,"antly":4993,"Ġpride":4994,"Ġlemonade":4995,"Ġdare":4996,"Ġhanger":4997,"Ġsits":4998,"Ġpulling":4999,"ĠHave":5000,"Ġdecorations":5001,"sters":5002,"ops":5003,"Ġremove":5004,"Peter":5005,"Ġcuddled":5006,"Ġhate":5007,"Ġdaisy":5008,"Ġlicense":5009,"avid":5010,"Ġbeans":5011,"Ġsimp":5012,"Ġport":5013,"Ġrespons":5014,"izard":5015,"Ġpraised":5016,"sing":5017,"reat":5018,"Ġchirping":5019,"Ġhits":5020,"ents":5021,"Ġequ":5022,"Ġfastest":5023,"Ġsuffer":5024,"xture":5025,"Ġbuzzing":5026,"Ġpatiently":5027,"Ġdresses":5028,"Ġmention":5029,"Ġbleed":5030,"sity":5031,"Ġrhy":5032,"Ġautomobile":5033,"nies":5034,"Ġappreciate":5035,"Ġpoppy":5036,"Ġdestination":5037,"Ġtaller":5038,"Ġmall":5039,"osed":5040,"Ġhomes":5041,"Ġnation":5042,"ium":5043,"Ġdigg":5044,"Ġflav":5045,"Ġclimbs":5046,"Ġguy":5047,"Ġwashing":5048,"Ġpalm":5049,"Ġglo":5050,"Ġshot":5051,"Ġlabel":5052,"Emily":5053,"Ġbelieved":5054,"Ġdigging":5055,"All":5056,"Ġapproached":5057,"Ġhesit":5058,"fied":5059,"Mmm":5060,"Ġnone":5061,"Ġtore":5062,"Ġdeeper":5063,"Ġwine":5064,"Ġinfant":5065,"ude":5066,"Ġrestore":5067,"Ġscore":5068,"Ġhers":5069,"ĠTina":5070,"rm":5071,"Ġmitten":5072,"Ġchamber":5073,"ĠOllie":5074,"Ġsausage":5075,"Ġstruggling":5076,"Ġheat":5077,"Ġdifferen":5078,"Ġtongue":5079,"Ġhills":5080,"Ġhurric":5081,"Ġpunish":5082,"Ġpillows":5083,"Ġbillboard":5084,"Ġsneezed":5085,"Ġsport":5086,"Ġwizard":5087,"ĠEach":5088,"Ġupstairs":5089,"Ġthrilled":5090,"Ġprovide":5091,"Ġbrain":5092,"Ġawe":5093,"Ġdiscuss":5094,"Jake":5095,"Ġpanic":5096,"Ġwarning":5097,"Ġtwisted":5098,"Ġglowed":5099,"Ġuniverse":5100,"Ġfiref":5101,"Ġtherm":5102,"Ġvacation":5103,"Ġworse":5104,"Ġcrunch":5105,"Ġpoison":5106,"Ġshed":5107,"Ġsolved":5108,"Ġparts":5109,"osity":5110,"ĠCo":5111,"bey":5112,"Ġevent":5113,"Ġsetting":5114,"allen":5115,"Ġtour":5116,"Ġremained":5117,"Mark":5118,"Ġairplane":5119,"Ġhurricane":5120,"Ġthermomet":5121,"Ġplays":5122,"Ġexamine":5123,"Ġsparkles":5124,"Ġshooting":5125,"Ġinvit":5126,"Ġneighborhood":5127,"Ġsty":5128,"Ġchores":5129,"Ġoranges":5130,"Ġfloated":5131,"Ġranch":5132,"Ġchallen":5133,"ĠMaggie":5134,"thm":5135,"Ġweeks":5136,"Ġleak":5137,"ĠEveryday":5138,"Ġuniversity":5139,"Ġpaints":5140,"Ġthermometer":5141,"These":5142,"Ġbites":5143,"Ġrepeat":5144,"Ġbang":5145,"adium":5146,"Ġfloating":5147,"Ġfixing":5148,"ging":5149,"Ġmeasured":5150,"Sh":5151,"ĠBetsy":5152,"Ġstadium":5153,"Ġgrinned":5154,"!'":5155,"do":5156,"Ġduring":5157,"!\",":5158,"Ġsurrounded":5159,"Ġsupposed":5160,"aspoon":5161,"Ġconf":5162,"Ġrhythm":5163,"Ġmassage":5164,"Ġbrings":5165,"Fl":5166,"Ġpaused":5167,"Ġcherry":5168,"Ġgifts":5169,"Ġfut":5170,"Ġsprinkles":5171,"Ġfasc":5172,"Ġfuture":5173,"Ġmemory":5174,"ÅĵIÃ¢":5175,"Ġteaspoon":5176,"Ġgrey":5177,"rise":5178,"Ġcollection":5179,"Ġsigns":5180,"Jen":5181,"Ġmarbles":5182,"Not":5183,"bbles":5184,"Ġjazz":5185,"Would":5186,"Ġstomach":5187,"ĠBuzz":5188,"emember":5189,"Ġgust":5190,"Ġwisdom":5191,"Ġactually":5192,"Ġflood":5193,"Ġdiscovery":5194,"Ġinclud":5195,"Ġsew":5196,"Ġvehicle":5197,"Ġtide":5198,"Ġlily":5199,"Ġgirls":5200,"Ġsunrise":5201,"ĠGood":5202,"ishing":5203,"ĠLiz":5204,"vet":5205,"ÅĵThatÃ¢":5206,"Ġmeowed":5207,"ls":5208,"Ġelephants":5209,"Ġurge":5210,"Ġexercise":5211,"Ġmailman":5212,"Ġlugg":5213,"umble":5214,"Ġdecision":5215,"Ġchewed":5216,"Ġrush":5217,"Ġweapon":5218,"Ġstrang":5219,"Ġobserve":5220,"Ġluggage":5221,"Ġunite":5222,"Ġcartoons":5223,"ero":5224,"Ġsore":5225,"Ġfascin":5226,"Ġtomatoes":5227,"iers":5228,"Ġscur":5229,"Ġpossible":5230,"Ġtoe":5231,"ĠLater":5232,"allow":5233,"cles":5234,"Ġsunlight":5235,"ities":5236,"Ġfolded":5237,"Ġcurled":5238,"ĠV":5239,"Ġchirped":5240,"Ġrust":5241,"Ġmelted":5242,"ĠRuby":5243,"Ġspill":5244,"Ġcakes":5245,"uing":5246,"Ġsip":5247,"Ġcollecting":5248,"Ġx":5249,"Ġgrape":5250,"son":5251,"ĠJoy":5252,"Ġmineral":5253,"eed":5254,"ĠRachel":5255,"Ġbrus":5256,"Ġdifference":5257,"Ġproblems":5258,"Ġbak":5259,"Le":5260,"Ġtracks":5261,"Ġjogging":5262,"Johnny":5263,"Ġwherever":5264,"ĠMe":5265,"Ready":5266,"Al":5267,"Ġmountains":5268,"ipment":5269,"Ġbes":5270,"Ġsliding":5271,"eration":5272,"Ġmanage":5273,"Ġequipment":5274,"etch":5275,"Ġlaid":5276,"Ġlick":5277,"Ġadmiring":5278,"Ġwatered":5279,"cious":5280,"Ġsatis":5281,"Ġcontain":5282,"Ġbricks":5283,"ĠSpike":5284,"oved":5285,"Ġtwigs":5286,"rr":5287,"ĠSomeone":5288,"Ġpatterns":5289,"Ġkindly":5290,"Ġpetted":5291,"Ġskipping":5292,"Ġpotatoes":5293,"Ġseats":5294,"Ex":5295,"bers":5296,"Ġsoldiers":5297,"Ġgloves":5298,"Ġspaces":5299,"zag":5300,"joyed":5301,"unday":5302,"Ġreceive":5303,"Ġkeeper":5304,"Ġcopper":5305,"Ġemer":5306,"Ġslice":5307,"Ġlets":5308,"Ġgain":5309,"ddy":5310,"Ġcontinue":5311,"Ġordered":5312,"Ġstrangers":5313,"walk":5314,"Ġoverjoyed":5315,"Ġwatches":5316,"Ġgotten":5317,"Ġpigs":5318,"omas":5319,"Ġzipped":5320,"mother":5321,"ĠSunday":5322,"Ġlands":5323,"Ġwhistling":5324,"Ġgaz":5325,"Ġbeside":5326,"ÅĵThank":5327,"Ġsafari":5328,"Ġbeg":5329,"Ġprayed":5330,"ĠCat":5331,"Susie":5332,"Ġpeered":5333,"Ġnetwork":5334,"ĠSteve":5335,"bbled":5336,"Ġspit":5337,"Ġeff":5338,"Ġinvitation":5339,"Ġmarching":5340,"Ġours":5341,"ases":5342,"Ġglitter":5343,"ĠPenny":5344,"Ġwooden":5345,"Ġearthqu":5346,"Ġsidewalk":5347,"Ġeagle":5348,"igzag":5349,"Ġdoggy":5350,"Ġdrinks":5351,"Ġgrocery":5352,"irp":5353,"Ġweight":5354,"Ġnavy":5355,"Ġacorns":5356,"Ġattached":5357,"Ġraised":5358,"Ġdisagreed":5359,"loe":5360,"Ġweren":5361,"Yum":5362,"ĠPoppy":5363,"ĠLetÃ¢":5364,"ĠMilly":5365,"Ġbeat":5366,"Ġcompany":5367,"Ouch":5368,"Ġmister":5369,"Ġburning":5370,"fy":5371,"Ġonwards":5372,"hest":5373,"\",":5374,"Ġwre":5375,"Ġhappiest":5376,"ĠSpark":5377,"Moral":5378,"Ġracing":5379,"Ġbrid":5380,"Before":5381,"Ġcrashed":5382,"Ġspoons":5383,"Ġfed":5384,"Ġcrunchy":5385,"Ġpeanuts":5386,"Ġwhistled":5387,"ĠSharing":5388,"Ġprice":5389,"seek":5390,"Ġmeow":5391,"Ġhurried":5392,"Ġhist":5393,"Ġofficer":5394,"ĠRa":5395,"Ġbrick":5396,"Ġaccom":5397,"Ġtremb":5398,"Ġrefreshed":5399,"Ġpies":5400,"Ġremem":5401,"Ġflap":5402,"Ġworks":5403,"Ġclearing":5404,"nie":5405,"ĠSad":5406,"Ġoperation":5407,"Ġprepared":5408,"Ġbowed":5409,"Ġscratched":5410,"Ġremembers":5411,"Ġhistory":5412,"Ġexa":5413,"aded":5414,"Ġlips":5415,"amb":5416,"Really":5417,"ĠKatie":5418,"Ġfireworks":5419,"Ġprune":5420,"ÅĵWe":5421,"Ġescaped":5422,"Ro":5423,"Ġdinosaurs":5424,"Ġmenu":5425,"ĠAbigail":5426,"Ġbridges":5427,"Ġtalent":5428,"Ġplanted":5429,"amie":5430,"Ġbuildings":5431,"Ġrevealed":5432,"Ġeasier":5433,"Ġbye":5434,"Ġturning":5435,"Ġcomfy":5436,"Ġscreams":5437,"Ġolive":5438,"Ġbrand":5439,"ĠChr":5440,"ĠQu":5441,"Ġhated":5442,"Ġchat":5443,"Ġselling":5444,"Ġsnowball":5445,"die":5446,"ĠLuna":5447,"Ġrecognized":5448,"Ġwarn":5449,"Ġaccompl":5450,"Ġcrept":5451,"Ġprecious":5452,"ĠZoe":5453,"Ġlandsc":5454,"omething":5455,"ĠFro":5456,"Ġstrip":5457,"ĠNot":5458,"Ġmuddy":5459,"Ġpadd":5460,"Ġwid":5461,"Ġdrinking":5462,"Ġsings":5463,"xygen":5464,"Ġbeds":5465,"Ġpupp":5466,"ecture":5467,"Ġsettle":5468,"Ġearthquake":5469,"ĠMat":5470,"Ġsimple":5471,"Ġeffort":5472,"cc":5473,"ĠRemy":5474,"Ġreminder":5475,"Ġspaceship":5476,"Ġmeasuring":5477,"Ġslip":5478,"Ġperched":5479,"Ġlecture":5480,"Ġbones":5481,"Ġserved":5482,"Ġappear":5483,"Ġwonders":5484,"Ġshadows":5485,"Ġwaits":5486,"Ġvoices":5487,"ÅĵCan":5488,"Ġcuddle":5489,"Ġeveryday":5490,"Ġpedal":5491,"Ġpitch":5492,"Ġcomforted":5493,"Ġagreement":5494,"Ġresponsible":5495,"Ġcircus":5496,"Ġrained":5497,"Ġvel":5498,"Ġobey":5499,"ffic":5500,"Ġvict":5501,"Ġtip":5502,"Ġsoared":5503,"Ġallow":5504,"Ġanytime":5505,"Ġtrapped":5506,"Ġcal":5507,"Ġwhatever":5508,"Ġzigzag":5509,"Ġtastes":5510,"Ġapologize":5511,"Ġlandscape":5512,"Ġcutting":5513,"Ġsucceeded":5514,"Ġshopping":5515,"Ġrang":5516,"Ġpets":5517,"Ġsecrets":5518,"Ġvillag":5519,"Ġfash":5520,"ĠDavid":5521,"Ġvelvet":5522,"Ġprinter":5523,"Ġdisturbed":5524,"Ġwaist":5525,"Ġitems":5526,"Ġswims":5527,"Ġbun":5528,"Ġtraffic":5529,"Ġpracticing":5530,"Ġsteel":5531,"Ġbringing":5532,"Ġoats":5533,"Ġexactly":5534,"Ġsisters":5535,"Ġrested":5536,"Ġvisiting":5537,"Ġscoop":5538,"Ġactiv":5539,"Luckily":5540,"Ġcostumes":5541,"annah":5542,"Ġanswers":5543,"ĠFrank":5544,"izing":5545,"Ġolives":5546,"ien":5547,"mble":5548,"Ġbrushed":5549,"Ġstyle":5550,"Ġmouths":5551,"ĠPr":5552,"Ġsoak":5553,"laire":5554,"Ġcuriosity":5555,"ishes":5556,"Ġoutdo":5557,"neath":5558,"Ġbreaking":5559,"Ġfashion":5560,"ĠSunny":5561,"Ġrele":5562,"Ġowned":5563,"Ġladyb":5564,"Ġencourage":5565,"ĠNut":5566,"ÅĵDon":5567,"Ġknelt":5568,"Ġfascinated":5569,"Ġleather":5570,"mare":5571,"Ġimage":5572,"iggy":5573,"Ġvillagers":5574,"oming":5575,"Ġnails":5576,"Ġbeneath":5577,"icorn":5578,"Ġunderground":5579,"Ġwaffles":5580,"Tweet":5581,"Ġunicorn":5582,"Ġsadness":5583,"enty":5584,"terday":5585,"Ġunlocked":5586,"inda":5587,"Ġdied":5588,"Ġrecognize":5589,"ĠItÃ¢":5590,"Ġdownstairs":5591,"Ġcreation":5592,"Ġcatching":5593,"ĠChirp":5594,"Ġgrandmother":5595,"Ġoxygen":5596,"isten":5597,"Ġmonsters":5598,"Ġtremble":5599,"Ġchef":5600,"ĠJe":5601,"Ġeats":5602,"ĠThese":5603,"Ġpupil":5604,"ik":5605,"Ġwanting":5606,"Ġnightmare":5607,"Ġjogged":5608,"Ġcape":5609,"Ġstripes":5610,"Ġdoctors":5611,"Ġsoaring":5612,"Ġblueberry":5613,"ley":5614,"ĠHowever":5615,"Ġstruggled":5616,"Ġlemons":5617,"ĠBeth":5618,"Ġwondering":5619,"Ġbleeding":5620,"Ġpunished":5621,"Happy":5622,"Ġgained":5623,"Ġfamil":5624,"ayla":5625,"dam":5626,"Ġfetch":5627,"ĠSomething":5628,"Ġexamined":5629,"Ġnicer":5630,"Ġguessed":5631,"Ġplanned":5632,"Ġdrag":5633,"Ġcaut":5634,"Ġsitu":5635,"Ġmachines":5636,"Ġmission":5637,"First":5638,"Ġstealing":5639,"Ġargued":5640,"uke":5641,"Ġarea":5642,"ĠFirst":5643,"Ġcomple":5644,"Ġpiles":5645,"Ġsi":5646,"Ġherbs":5647,"Ġfreeze":5648,"Ġintroduc":5649,"Ġstirring":5650,"Ġripped":5651,"Sometimes":5652,"Ġsix":5653,"Ġchallenge":5654,"Ġtugged":5655,"Ġstudied":5656,"Ġfiremen":5657,"Un":5658,"Ġbend":5659,"Ġbare":5660,"Ġwagging":5661,"Ġzooming":5662,"Or":5663,"Ġaccidents":5664,"Ġvictory":5665,"ĠOw":5666,"Ġsatisfied":5667,"Ġwreck":5668,"ĠSuzy":5669,"Ġinstruct":5670,"Ġproperly":5671,"agull":5672,"Ġkeys":5673,"ulu":5674,"Dave":5675,"Ġwinning":5676,"Ġshivering":5677,"ĠUncle":5678,"looking":5679,"Ġbunnies":5680,"Ġincrease":5681,"ux":5682,"ding":5683,"Ġgathering":5684,"Ġtune":5685,"Ġmice":5686,"Ġexit":5687,"Ġfirefight":5688,"Ġoutdoors":5689,"Ġwinner":5690,"Ġtwirling":5691,"Ġslapped":5692,"Ġloaded":5693,"Ġteasing":5694,"Ġpeel":5695,"Ġdecorated":5696,"ĠKe":5697,"uxu":5698,"Ġdeser":5699,"Ġsupplies":5700,"Ġyelling":5701,"Ġneighbourhood":5702,"Ġseagull":5703,"Ġunderneath":5704,"Ġpermit":5705,"Ġsights":5706,"Ġtickets":5707,"usan":5708,"Ġann":5709,"Ġpancakes":5710,"oh":5711,"Ġbegin":5712,"Ġburrow":5713,"Ġpearl":5714,"Ġrides":5715,"Ġsiren":5716,"Ġpeaches":5717,"ĠJan":5718,"Ġmixing":5719,"Ġreleased":5720,"Ġdraws":5721,"Ġweighed":5722,"aky":5723,"Fluffy":5724,"ena":5725,"ĠTw":5726,"Ġsneaked":5727,"ica":5728,"ĠFloppy":5729,"indy":5730,".'":5731,"Ġconfident":5732,"Ġrealize":5733,"Ġinstructions":5734,"Ġspiders":5735,"Ġintroduce":5736,"Ġluxu":5737,"Ġdam":5738,"Ġmuffins":5739,"shing":5740,"Lola":5741,"Ġcontro":5742,"Cl":5743,"ĠletÃ¢":5744,"Ġpinched":5745,"Ġbudge":5746,"Ġsolut":5747,"Ġzero":5748,"Ġcompetition":5749,"ĠLucky":5750,"ĠJulie":5751,"ĠNutty":5752,"Ġprinted":5753,"Ġstudying":5754,"Bella":5755,"Ġloving":5756,"Ġbeha":5757,"Ġinch":5758,"Ġpockets":5759,"ĠCoco":5760,"Ġbaked":5761,"ales":5762,"Ġstruck":5763,"ÅĵLook":5764,"ĠDid":5765,"ĠRabbit":5766,"Ġshoulders":5767,"Ġbunch":5768,"Ġopin":5769,"Ġlines":5770,"Ġfrosting":5771,"Ġrelease":5772,"Goodbye":5773,"Ġdecides":5774,"Ġgiggling":5775,"Ġbroom":5776,"ĠLike":5777,"Ġourselves":5778,"Ġweb":5779,"Ġpastel":5780,"lled":5781,"ĠPip":5782,"Ġstamps":5783,"Ġcones":5784,"nes":5785,"Ġemergen":5786,"ÅĵHello":5787,"Ġstair":5788,"Ġstitch":5789,"bbing":5790,"George":5791,"ĠOl":5792,"ĠStop":5793,"Ġprunes":5794,"Ġladybug":5795,"Ġsides":5796,"oed":5797,"Ġgrant":5798,"Ġscurried":5799,"Ġstrings":5800,"âĤ¬âĢĿ":5801,"Ġtim":5802,"ais":5803,"Ġmarks":5804,"Mike":5805,"Mr":5806,"Ġruler":5807,"Ġpears":5808,"Andy":5809,"gers":5810,"Teddy":5811,"ednes":5812,"ednesday":5813,"Ġrepeated":5814,"Ġdrift":5815,"Ġkeeps":5816,"Ġago":5817,"Ġclaps":5818,"Ġpoking":5819,"ĠAm":5820,"anta":5821,"ÅĵThis":5822,"Ye":5823,"ays":5824,"ĠBig":5825,"Ġcrowd":5826,"ĠHop":5827,"Ġruin":5828,"Ġprints":5829,"kins":5830,"low":5831,"Ġbrushes":5832,"Ġkicking":5833,"Ġstretching":5834,"Ġdemanded":5835,"ĠThomas":5836,"len":5837,"Ġsting":5838,"ody":5839,"Ġneighbors":5840,"Ġmentioned":5841,"ira":5842,"Ġmast":5843,"owers":5844,"Ġtouching":5845,"Ġtonight":5846,"Ġprotected":5847,"ĠChirpy":5848,"Ġwrites":5849,"Ġsweeties":5850,"ĠJosh":5851,"Ġgoodnight":5852,"uesday":5853,"Ġyouth":5854,"Ġbuckets":5855,"Ġribbons":5856,"va":5857,"jam":5858,"uctantly":5859,"ĠWednesday":5860,"tiest":5861,"ashed":5862,"Ġprettiest":5863,"ĠChloe":5864,"Ġforgi":5865,"Ġvent":5866,"Ġparked":5867,"icky":5868,"exp":5869,"Ġproject":5870,"Ġcamping":5871,"Ġsoaked":5872,"zie":5873,"ĠTiny":5874,"Ġbarely":5875,"Ġhorns":5876,"Ġbouncy":5877,"Bobby":5878,"icked":5879,"bies":5880,"Mar":5881,"riage":5882,"Ah":5883,"hins":5884,"Ġdiscovering":5885,"Pete":5886,"ĠAn":5887,"ĠBir":5888,"Ella":5889,"ÅĵDonÃ¢":5890,"ĠOnce":5891,"Ġeast":5892,"ĠSure":5893,"Joey":5894,"Grandpa":5895,"Ġtwinkling":5896,"Ġresult":5897,"Ġexpect":5898,"Ġsurface":5899,"Ġsorting":5900,"Ġdent":5901,"Ġstole":5902,"ÅĵWhy":5903,"Ġwest":5904,"Ġinterest":5905,"Ġvowed":5906,"Ġtexture":5907,"Ġgazed":5908,"ĠGr":5909,"Ġpurred":5910,"ĠTuesday":5911,"Ġsteep":5912,"Ġguys":5913,"Ġbabies":5914,"Ġshock":5915,"Ġbeard":5916,"Ġmovies":5917,"ĠCarl":5918,"ĠRob":5919,"Ġcautious":5920,"expected":5921,"zen":5922,"Ġpowers":5923,"Ġapplauded":5924,"Ġsilence":5925,"Fr":5926,"thank":5927,"Ġpebbles":5928,"ĠBubbles":5929,"Ġentire":5930,"Ġloose":5931,"Ġcontrol":5932,"Ġtickle":5933,"Ġguns":5934,"Ġurged":5935,"Ġdragons":5936,"Ġ1":5937,"Ġacted":5938,"Ġdragged":5939,"Ġunexpected":5940,"Ġluxury":5941,"edding":5942,"Henry":5943,"Ġcatches":5944,"Uh":5945,"ason":5946,"ern":5947,"Ġmittens":5948,"Ġmuscles":5949,"Ġchewing":5950,"Ġrocking":5951,"Ġflat":5952,"Ġfab":5953,"Ġdolphins":5954,"Ġcompleted":5955,"Ġfabric":5956,"Ġcurtains":5957,"Ġemergency":5958,"Maggie":5959,"Ġblink":5960,"Ġintroduced":5961,"une":5962,"Ġdirection":5963,"uly":5964,"Ġchips":5965,"Ġhonk":5966,"Ġseason":5967,"Ġpatience":5968,"Ġstrike":5969,"Ġimportance":5970,"eezing":5971,"Ġreluctantly":5972,"Ġbank":5973,"Ġeight":5974,"Ġslim":5975,"usted":5976,"Ġfigured":5977,"Ġhighest":5978,"Ġshivered":5979,"Remember":5980,"Ġfrozen":5981,"Ġlibrarian":5982,"ĠBetty":5983,"Ġsolution":5984,"Ġcontest":5985,"Ġrocked":5986,"Ġachieve":5987,"Ġscreaming":5988,"Ġchases":5989,"ĠZoom":5990,"Ġreplac":5991,"Ġpouring":5992,"Rex":5993,"Ġshelves":5994,"Ġwound":5995,"ĠJamie":5996,"Ġtheirs":5997,"Ġcrumb":5998,"Ġrubbing":5999,"esome":6000,"Ġti":6001,"Ġhugging":6002,"Ġdrives":6003,"Ġstaring":6004,"Ġsorted":6005,"Ġsnail":6006,"Ġroaring":6007,"ÅĵOh":6008,"ledge":6009,"Ġinclude":6010,"Fred":6011,"Ġplanets":6012,"ĠAnne":6013,"Ġmater":6014,"ĠSanta":6015,"Ġmateri":6016,"Ġsafer":6017,"Ġpoliceman":6018,"fit":6019,"Ġcurly":6020,"Ġsituation":6021,"Ġfoods":6022,"Ġgreet":6023,"Ġawesome":6024,"ĠcanÃ¢":6025,"Ġusual":6026,"vin":6027,"Ġsighs":6028,"Ġknowledge":6029,"itely":6030,"irts":6031,"Ġpassing":6032,"Ġshined":6033,"Ġflags":6034,"Ġexha":6035,"Ġdared":6036,"Ġbalancing":6037,"Ġplenty":6038,"ĠyouÃ¢":6039,"Ġmatched":6040,"Ġtowels":6041,"Ġlied":6042,"ults":6043,"Ġhomework":6044,"Leo":6045,"Ġoutfit":6046,"though":6047,"Ġslimy":6048,"Ġbravery":6049,"ĠLulu":6050,"Ġtruly":6051,"Ġpretends":6052,"ĠAunt":6053,"avi":6054,"Ġzookeeper":6055,"acob":6056,"Ġcheering":6057,"Ġheel":6058,"Ġwedding":6059,"ĠTilly":6060,"Ġgoals":6061,"Ġrainbows":6062,"jamas":6063,"Ġsausages":6064,"James":6065,"cuse":6066,"ĠHoppy":6067,"Ġthreat":6068,"Ġaccomplish":6069,"ĠMatt":6070,"Danny":6071,"ĠSusan":6072,"Ġpatted":6073,"Ġcaused":6074,"Ġpaintings":6075,"ĠClaire":6076,"Ġreaching":6077,"Paul":6078,"ĠCar":6079,"Ġresting":6080,"Ġradishes":6081,"Ġarguing":6082,"Ġpacking":6083,"Excuse":6084,"...":6085,"bert":6086,"Ġgrowling":6087,"Ġblooming":6088,"ĠAlways":6089,"Ġspraying":6090,"Grace":6091,"Ġfoc":6092,"Ġwaiter":6093,"Ġexhausted":6094,"iar":6095,"Ġge":6096,"Ġstruggle":6097,"izzie":6098,"aa":6099,"Ġsweets":6100,"Ġsticking":6101,"Kitty":6102,"Ġpout":6103,"ences":6104,"Ġmarkers":6105,"Ġmotion":6106,"Ġworker":6107,"Ġkneeled":6108,"ĠJessie":6109,"Ġpaddled":6110,"ĠLou":6111,"Ġgrowl":6112,"Ġsled":6113,"immer":6114,"Ġsuitc":6115,"Ġmane":6116,"ĠFor":6117,"Ġsway":6118,"Ġsnugg":6119,"Ġstartled":6120,"ĠMomo":6121,"Ġcubes":6122,"Ġrescued":6123,"Ġboo":6124,"Ġspike":6125,"Ġwritten":6126,"Sophie":6127,"Ġdusty":6128,"Ġtraveled":6129,"Ġinviting":6130,"hello":6131,"Ġexpected":6132,"Ġbead":6133,"Ġslap":6134,"Ġcuts":6135,"Ġcent":6136,"Ġbottles":6137,"Ġmatching":6138,"Ġguest":6139,"Ġsinger":6140,"Ġflavor":6141,"Ġreveal":6142,"Ġlearns":6143,"Ġheav":6144,"lee":6145,"Ġprincesses":6146,"Ġcreating":6147,"Ġregretted":6148,"Ġfart":6149,"Ġbloomed":6150,"Yeah":6151,"Ġtrembling":6152,"Ġreplaced":6153,"Ġfir":6154,"Ġarrive":6155,"ĠYes":6156,"Ġmarriage":6157,"you":6158,"pite":6159,"Ġrecorded":6160,"aisies":6161,"Ġpencils":6162,"Annie":6163,"Ġincluded":6164,"Ġlap":6165,"Ġchuck":6166,"Ġobserved":6167,"Ġdisagree":6168,"njoy":6169,"Ġdaisies":6170,"Ġpots":6171,"ĠLinda":6172,"Ġactivities":6173,"Ġprayer":6174,"Ġfirm":6175,"Ġtimer":6176,"Ġpajamas":6177,"Charlie":6178,"Ġroads":6179,"Ġwires":6180,"ĠĠĊ":6181,"Ġremoved":6182,"Ġdarkness":6183,"Ġworries":6184,"Ġuses":6185,"Ġventured":6186,"ĠMad":6187,"Ġcountryside":6188,"Ġorganizing":6189,"Ġstare":6190,"Mrs":6191,"Ġcompletely":6192,"uzz":6193,"ĠBy":6194,"Ġworkers":6195,"ĠHa":6196,"Ġopening":6197,"Ġfairies":6198,"Ġrelief":6199,"Ġwasted":6200,"angled":6201,"Ġleap":6202,"Ġreply":6203,"Ġowners":6204,"ĠAbby":6205,"Ġstorekeeper":6206,"ĠBo":6207,"Ġcott":6208,"Ġbelly":6209,"ĠSadly":6210,"vers":6211,"Ġranger":6212,"Ġfault":6213,"aty":6214,"Ġpartic":6215,"ĠJohnson":6216,"Ġunf":6217,"ĠJu":6218,"Ġquacked":6219,"Ġpolishing":6220,"Ġleader":6221,"Ġstern":6222,"ora":6223,"iding":6224,"lowly":6225,"Ġbecoming":6226,"Ġflames":6227,"Ġlamb":6228,"ĠJeff":6229,"Ġkites":6230,"ctions":6231,"Ġagrees":6232,"Ġpoems":6233,"Ġpenguins":6234,"ĠwasnÃ¢":6235,"Afterwards":6236,"Ġfaced":6237,"ĠQuack":6238,"essie":6239,"ĠOut":6240,"Ġeverybody":6241,"Ġseesaw":6242,"However":6243,"ĠPinky":6244,"Ġfolding":6245,"Ġmelting":6246,"Ġscales":6247,"Ġsquealed":6248,"Ġthro":6249,"Ġhealed":6250,"Ġvanish":6251,"ĠUnfortunately":6252,"Ġhelmets":6253,"Ġwink":6254,"ĠLuke":6255,"ĠBoth":6256,"Ġlogs":6257,"ĠJones":6258,"ĠJenna":6259,"ords":6260,"Ġcrabs":6261,"Ġthroat":6262,"ĠMart":6263,"hell":6264,"ĠLeave":6265,"Ġusually":6266,"Ġopinion":6267,"Ġcrumbs":6268,"Ġtractor":6269,"Ġripe":6270,"Ġdipped":6271,"opes":6272,"lings":6273,"Ġscra":6274,"Ġseems":6275,"Ġast":6276,"Ġlollipops":6277,"Ġtwinkle":6278,"Ġcash":6279,"Ġrisk":6280,"ĠChrist":6281,"Ġteaches":6282,"Ġcomm":6283,"ĠBye":6284,"Ġgroceries":6285,"ĠFollow":6286,"Ġden":6287,"Ġknights":6288,"Harry":6289,"ivery":6290,"asm":6291,"Ġprovided":6292,"Ġdentist":6293,"Ġpolished":6294,"Ġvalued":6295,"Ġstaying":6296,"ids":6297,"elle":6298,"Ġpeeking":6299,"aze":6300,"Ġsnakes":6301,"ĠAdam":6302,"Ġscru":6303,"Ġinterested":6304,"Ġblows":6305,"Ġrubs":6306,"ĠWatch":6307,"Ġcautiously":6308,"ĠDolly":6309,"Ġcracked":6310,"Alex":6311,"Ġrings":6312,"Ġunited":6313,"ophia":6314,"araway":6315,"ĠPut":6316,"Ġfaraway":6317,"Ġdesert":6318,"ĠSorry":6319,"Ġwinked":6320,"Ġmisses":6321,"Ġprotecting":6322,"Ġfreed":6323,"Ġmarked":6324,"Ellie":6325,"Mittens":6326,"Ġyounger":6327,"Ġwrist":6328,"Ġcloses":6329,"Ġwandering":6330,"mas":6331,"Ġbalanced":6332,"Ġchuckled":6333,"Ġfuzzy":6334,"Ġforehead":6335,"Ġlistens":6336,"Ġpastries":6337,"Ġsingle":6338,"ĠKayla":6339,"Ġsigned":6340,"go":6341,"Ġrobb":6342,"ĠHannah":6343,"Ġbeads":6344,"Ġparticular":6345,"Ġroses":6346,"boo":6347,"Ġboom":6348,"ĠFox":6349,"Ab":6350,"Ġactions":6351,"Ġdirections":6352,"Ġhowever":6353,"ÅĵMommy":6354,"Ġcopy":6355,"igi":6356,"ĠLizzy":6357,"ĠSuzie":6358,"Ġcough":6359,"Ġsplashes":6360,"Ġcrackers":6361,"rance":6362,"aura":6363,"Ġbaker":6364,"Ġnaps":6365,"Ġcous":6366,"ppers":6367,"Ġroots":6368,"Ġfilling":6369,"Ġsnowballs":6370,"Ġyesterday":6371,"ÅĵWhatÃ¢":6372,"Ġrestored":6373,"Ġfluttered":6374,"Ġdelivery":6375,"Ġrolls":6376,"abel":6377,"arling":6378,"Ġstem":6379,"Ġconn":6380,"Ġswooped":6381,"Bad":6382,"dies":6383,"iles":6384,"Ġgaze":6385,"Ġsuitcase":6386,"Ġwiggled":6387,"Unfortunately":6388,"Ġtipt":6389,"ĠNina":6390,"ilo":6391,"Sandy":6392,"Ġsomebody":6393,"ickey":6394,"Ġbumpy":6395,"Ġitchy":6396,"bbly":6397,"Ġrefle":6398,"Ġswirl":6399,"Ġslam":6400,"ĠChristmas":6401,"Ëľ":6402,"ĠY":6403,"Ġphotos":6404,"âĤ¬Ëľ":6405,"Some":6406,"oline":6407,"Ġtwin":6408,"Ġpastels":6409,"Ġcelebration":6410,"Ġtrips":6411,"Ġpedals":6412,"ĠPipp":6413,"atches":6414,"Ġbacked":6415,"Ġtallest":6416,"Ġawake":6417,"ĠKeep":6418,"Ġfroze":6419,"Ġcause":6420,"Ġcashier":6421,"Ġnect":6422,"Ġremote":6423,"Ġlined":6424,"Ġdarker":6425,"Ġdetermination":6426,"Ġnectar":6427,"ility":6428,"Ġspeaking":6429,"Ġsecure":6430,"ormed":6431,"ĠDoggy":6432,"ĠMany":6433,"Ġknees":6434,"Kate":6435,"Ġwow":6436,"ĠFriend":6437,"Ġpiggy":6438,"anes":6439,"Ġcomplaining":6440,"Ġbars":6441,"per":6442,"Ġrecording":6443,"Run":6444,"Ġsneaky":6445,"Ġsilent":6446,"Ġvideos":6447,"May":6448,"oys":6449,"Ġhealth":6450,"Ġaccomplishment":6451,"Ġliqu":6452,"Ġpleasure":6453,"Ġacting":6454,"?\",":6455,"Ġentrance":6456,"Ġty":6457,"ĠBird":6458,"Millie":6459,"Bun":6460,"Ġwears":6461,"Ġrockets":6462,"Ġdelivered":6463,"Ġmiles":6464,"Ġglee":6465,"Ġinsp":6466,"Ġhi":6467,"esmer":6468,"Ġcoloured":6469,"Ġopp":6470,"ĠPrin":6471,"Ġtricked":6472,"ĠEnjoy":6473,"Ġmesmer":6474,"ĠBeing":6475,"sequ":6476,"boat":6477,"Ġcheeks":6478,"ĠMo":6479,"yond":6480,"Ġaff":6481,"Ġbeyond":6482,"Ġafterwards":6483,"Ġnoon":6484,"Ġsib":6485,"Ġconsequ":6486,"Nina":6487,"Ġhissed":6488,"Ġstays":6489,"cited":6490,"Ġinsects":6491,"Ġglasses":6492,"ky":6493,"Ġbowls":6494,"Time":6495,"umm":6496,"Ġjoking":6497,"Rose":6498,"Toby":6499,"ĠNothing":6500,"Ġsobbed":6501,"Ġtickled":6502,"Ġfarther":6503,"Fine":6504,"Ġcolored":6505,"Ġburst":6506,"affes":6507,"Ġscaring":6508,"Ġstolen":6509,"Ġattack":6510,"Ġsense":6511,"Ġsandcastles":6512,"Ġtricky":6513,"Ġrule":6514,"Ġmasks":6515,"Sad":6516,"arter":6517,"Ġcovers":6518,"Bl":6519,"iki":6520,"Ġdeal":6521,"Ġgiraffes":6522,"Ġinstrum":6523,"ÅĵCome":6524,"Ġcalmed":6525,"Ġhandful":6526,"?'":6527,"Ġtalented":6528,"ĠSparky":6529,"Ġpause":6530,"Ġtangled":6531,"Ġindeed":6532,"aren":6533,"Ġadding":6534,"Ġsmarter":6535,"Ġscarves":6536,"Ġcandies":6537,"ths":6538,"ĠJessica":6539,"Ġlung":6540,"Ġshirts":6541,"Ġachieved":6542,"Ġchoices":6543,"Polly":6544,"Ġconsequences":6545,"Ġliquid":6546,"ossible":6547,"Lilly":6548,"Ġyourselves":6549,"rious":6550,"Ġbehavi":6551,"Ġleading":6552,"Ġbumps":6553,"Ġreads":6554,"Ġbatteries":6555,"igers":6556,"choo":6557,"Ġhesitated":6558,"Ġimpossible":6559,"Ġbadge":6560,"ĠTara":6561,"ĠMon":6562,"ept":6563,"Ġmi":6564,"Ġpaddle":6565,"Ġmixture":6566,"Ġexplorers":6567,"ĠTwo":6568,"Ġdarling":6569,"iled":6570,"Ġmagnets":6571,"lling":6572,"ĠMel":6573,"ouch":6574,"Ġclowns":6575,"Ġkicks":6576,"ĠGet":6577,"Ġrecommended":6578,"Shh":6579,"ana":6580,"Ġweeping":6581,"Ġgracefully":6582,"ners":6583,"Ġexperien":6584,"ĠCindy":6585,"ĠLizzie":6586,"ĠJon":6587,"Ġseashell":6588,"Ġseeker":6589,"Ġbakery":6590,"Ġfirefighters":6591,"anging":6592,"ĠJulia":6593,"Ġsalty":6594,"vest":6595,"brush":6596,"Ġimproved":6597,"Whe":6598,"rig":6599,"Those":6600,"Ġswept":6601,"Milly":6602,"atul":6603,"coat":6604,"Ġdeserve":6605,"Ġstroked":6606,"uggles":6607,"ĠPandy":6608,"Ġflapping":6609,"Ġwipes":6610,"Ġbeginning":6611,"Ġcomplained":6612,"Ġmushrooms":6613,"urry":6614,"ĠJacob":6615,"ĠEl":6616,"yan":6617,"Ġhider":6618,"Ru":6619,"obody":6620,"itches":6621,"ĠSque":6622,"ĠSqu":6623,"ĠMickey":6624,"Ġsteer":6625,"Ġknocks":6626,"Ġcust":6627,"Ġthorn":6628,"Ġseven":6629,"Ġcans":6630,"ĠHappy":6631,"Ġteased":6632,"Ġobjects":6633,"Ġparties":6634,"Days":6635,"ÅĵDo":6636,"Ġtravelled":6637,"Ġthird":6638,"ĠLarry":6639,"ĠGigi":6640,"Ġhearing":6641,"ĠPrincess":6642,"Ġbasement":6643,"Ġtigers":6644,"Ġcupcakes":6645,"Ġhoriz":6646,"Ġclick":6647,"ÅĵYouÃ¢":6648,"Ġfever":6649,"Ġsnuck":6650,"Ġheading":6651,"Ġseconds":6652,"Ġdots":6653,"Ġraincoat":6654,"tle":6655,"ĠSnuggles":6656,"Ġsiblings":6657,"Ġhorizon":6658,"elia":6659,"Ġsmiley":6660,"Ġperformance":6661,"Ġcustom":6662,"ĠPl":6663,"Ġartist":6664,"Ġhallway":6665,"no":6666,"Ġbeam":6667,"Ġmarker":6668,"Ġsnatched":6669,"Ġlighter":6670,"Ġyells":6671,"Ġjackets":6672,"Ġdrums":6673,"Ġfluttering":6674,"indr":6675,"ĠLena":6676,"ÅĵHi":6677,"ans":6678,"step":6679,"pare":6680,"ĠLuckily":6681,"Ġruining":6682,"Ġgems":6683,"Ġbedtime":6684,"igning":6685,"ĠwouldnÃ¢":6686,"Ġraindr":6687,"Ġwee":6688,"Ġneither":6689,"Ġconcer":6690,"Ġbuying":6691,"rigued":6692,"Ġpuppies":6693,"ĠSlowly":6694,"Ġlett":6695,"dri":6696,"ĠWater":6697,"ĠWithout":6698,"Ġpaying":6699,"Ġscrubbed":6700,"Ġcelebrating":6701,"Ġfamilies":6702,"Ġdollhouse":6703,"Ġannoy":6704,"ÅĵWow":6705,"Ġcreamy":6706,"Ġlettuce":6707,"band":6708,"Ġamong":6709,"umbling":6710,"Ġpeacefully":6711,"Ġrivers":6712,"Ġscratches":6713,"Ġwrapping":6714,"Ġwidened":6715,"Ġdrifted":6716,"Ġwadd":6717,"Bobo":6718,"Ġrumble":6719,"Tina":6720,"Ġtasks":6721,"atur":6722,"ivity":6723,"ades":6724,"Ġtreehouse":6725,"Ġhides":6726,"Ġwins":6727,"Ġrepa":6728,"Ġbehaved":6729,"cers":6730,"Ġrusty":6731,"alph":6732,"Ġplayers":6733,"ĠEverybody":6734,"ĠwonÃ¢":6735,"ĠBuzzy":6736,"Ġlun":6737,"Dan":6738,"ĠJazz":6739,"ael":6740,"Ġcuddly":6741,"immering":6742,"fall":6743,"Ġuns":6744,"Ġfact":6745,"ounce":6746,"Ġarrows":6747,"Ġrewarded":6748,"Ġwilling":6749,"Ġlower":6750,"Ġneedles":6751,"An":6752,"Ġsource":6753,"Ġcreativity":6754,"Ġshrinking":6755,"Ġcor":6756,"Ġlosing":6757,"Ġtemper":6758,"Ġech":6759,"Ġrepaired":6760,"Ġpassen":6761,"Ġfears":6762,"iece":6763,"Ġgrandpare":6764,"Ġincluding":6765,"Ġchoo":6766,"Ġtiptoed":6767,"itched":6768,"Tr":6769,"Ġcreations":6770,"Ġtapped":6771,"ĠAbbie":6772,"Ġgrassy":6773,"Ġchefs":6774,"Clara":6775,"ongr":6776,"ĠGoodbye":6777,"Ġdef":6778,"ded":6779,"Ġminerals":6780,"jo":6781,"Ġseparated":6782,"ĠEmmy":6783,"Ġsprinkled":6784,"Ġrising":6785,"Ġimagining":6786,"ĠJune":6787,"Ġgranted":6788,"ichael":6789,"Ġchop":6790,"Ġaud":6791,"Ġgross":6792,"ĠRock":6793,"Ġtempt":6794,"hew":6795,"Ġaren":6796,"Great":6797,"ĠLaura":6798,"ĠSophia":6799,"Ġswimsuit":6800,"ongratul":6801,"imon":6802,"ĠZip":6803,"Ġtiss":6804,"Ġpans":6805,"Ġlimes":6806,"hog":6807,"Ġstomped":6808,"Ġscrewdri":6809,"Ġcoup":6810,"Ġgrabbing":6811,"ĠPo":6812,"Ġpouted":6813,"Ġbackwards":6814,"Ġspong":6815,"itude":6816,"Ġdecorating":6817,"ÅĵMy":6818,"Ġdamage":6819,"ishy":6820,"Ġhesitant":6821,"Ġearn":6822,"Ġprinting":6823,"Have":6824,"Ġpeppers":6825,"Ġtodd":6826,"Ġstung":6827,"Ġsquares":6828,"Ġunpacked":6829,"cl":6830,"ments":6831,"Ġtramp":6832,"ntil":6833,"Ġslower":6834,"Ġcowb":6835,"Ġdiving":6836,"Ġplanning":6837,"Ġbeloved":6838,"Ġonions":6839,"Pat":6840,"Ġmaterials":6841,"Ġheavier":6842,"Ġchip":6843,"ĠJay":6844,"ĠOlive":6845,"Ġgrowls":6846,"Ġraindrops":6847,"Ġwrink":6848,"Ġmer":6849,"Ġpointy":6850,"ĠRemember":6851,"Ġsnowmen":6852,"cope":6853,"Ġsurroundings":6854,"Ġpromises":6855,"Ġavoid":6856,"Ġscrewdriver":6857,"Wh":6858,"Meow":6859,"Yummy":6860,"Ġrecipe":6861,"Ġaudience":6862,"Ġsailboat":6863,"Ġcousin":6864,"Ġrustling":6865,"Ġforgiven":6866,"Ġneighbours":6867,"Ġblocking":6868,"Que":6869,"Ġcenter":6870,"kend":6871,"Ġslices":6872,"Ġgobbled":6873,"eds":6874,"Ġwiping":6875,"Ġweekend":6876,"Ġtemperature":6877,"Ġtouc":6878,"Bill":6879,"Ġhedgehog":6880,"Ġtrampoline":6881,"Queen":6882,"int":6883,"Ġrefu":6884,"Ġarr":6885,"Ġhelpers":6886,"Ġwobbled":6887,"Ġrip":6888,"Ġwindy":6889,"For":6890,"Katie":6891,"pr":6892,"yes":6893,"Ġcouple":6894,"Ġstool":6895,"Ġdiscussed":6896,"ae":6897,"ushing":6898,"ĠPam":6899,"sty":6900,"Fo":6901,"Ġdesigned":6902,"ĠEarth":6903,"Ġornaments":6904,"Ġdreamt":6905,"Oops":6906,"itted":6907,"Ġnoses":6908,"Ġcorners":6909,"ĠStella":6910,"ĠEls":6911,"child":6912,"Ġpecked":6913,"Ġslammed":6914,"eal":6915,"uzzy":6916,"unched":6917,"Ġswans":6918,"Ġafford":6919,"iley":6920,"Ġhus":6921,"Ew":6922,"Roar":6923,"ĠRobby":6924,"Ġfeast":6925,"Ġsports":6926,"Ġhitting":6927,"oey":6928,"Ġage":6929,"ĠDr":6930,"Ġstreets":6931,"ably":6932,"Ġwag":6933,"Ġtissue":6934,"Ġdads":6935,"Ġache":6936,"Ġaside":6937,"ĠMira":6938,"ccoon":6939,"Ġraccoon":6940,"Ġsponge":6941,"Ġstain":6942,"Ġrequested":6943,"Ġmeals":6944,"Ġcuriously":6945,"Ġforks":6946,"Ġsunflowers":6947,"Ġreflection":6948,"Ġsnowfl":6949,"arrow":6950,"Ġwarnings":6951,"Ġtails":6952,"Baby":6953,"ĠNick":6954,"Ġdances":6955,"Ġprett":6956,"Ġplans":6957,"Jul":6958,"Ġbows":6959,"ido":6960,"Ġvanilla":6961,"Ġshaped":6962,"Ġfamiliar":6963,"ĠBinky":6964,"Ġsparks":6965,"Ġdet":6966,"ĠRobert":6967,"--":6968,"cky":6969,"Ġgri":6970,"Ġleaning":6971,"Ġdollars":6972,"Fin":6973,"Ġcoloring":6974,"Ġremembering":6975,"Ġadult":6976,"Ġbreathed":6977,"Ġintrigued":6978,"Ġgreeted":6979,"Ġsale":6980,"Ġscrews":6981,"using":6982,"Ġgrandchild":6983,"ne":6984,"ition":6985,"Ġduckling":6986,"Maria":6987,"Ġforgets":6988,"Ġspreading":6989,"osen":6990,"Ġgasp":6991,"ĠSc":6992,"Ġchosen":6993,"Ġastron":6994,"Ġthrown":6995,"Ġshops":6996,"Pe":6997,"ĠBee":6998,"ĠThose":6999,"Ġprettier":7000,"Ġtwice":7001,"Ġpraying":7002,"ĠRyan":7003,"Ġtunnels":7004,"Surpr":7005,"ĠGranny":7006,"aker":7007,"Ġhour":7008,"Ġpotion":7009,"ĠTess":7010,"Ġenthusi":7011,"llen":7012,"Ġtouches":7013,"Ġastronaut":7014,"Ġswords":7015,"ĠQueen":7016,"Ġenthusiasm":7017,"Ġhusband":7018,"arac":7019,"Ġsailors":7020,"ertain":7021,"Blue":7022,"Ġgardener":7023,"otten":7024,"Ġmoo":7025,"endy":7026,"Woof":7027,"Ġhops":7028,"Ġzipping":7029,"Ġspikes":7030,"Ġsuperheroes":7031,"Ġcorre":7032,"Ġreason":7033,"Boo":7034,"Ġmagician":7035,"Ġwishing":7036,"Ġdaring":7037,"Ġspoonful":7038,"Ġgrandparents":7039,"mallow":7040,"Ġleast":7041,"ĠBluey":7042,"Ġmarsh":7043,"Ġskunk":7044,"Ġreass":7045,"ĠThanks":7046,"ĠOur":7047,"Ġchanging":7048,"Ġdod":7049,"ĠNobody":7050,"Ġborrowed":7051,"Ġscamp":7052,"Ġcounts":7053,"Ġpens":7054,"Ġflight":7055,"Ġforgetting":7056,"Ġrotten":7057,"ĠChris":7058,"Ġbodies":7059,"Ġencourag":7060,"Ġflavors":7061,"Ġguests":7062,"Ġ10":7063,"Ġhopeful":7064,"ently":7065,"Ġneare":7066,"ĠAbi":7067,"Ġwoof":7068,"ĠFinn":7069,"ounced":7070,"Ġsnuggle":7071,"Ġmesmerized":7072,"Ġsending":7073,"ĠFriends":7074,"fly":7075,"Ġheroes":7076,"Ġcharac":7077,"Ġcharacter":7078,"Ġmuscle":7079,"stick":7080,"ĠRover":7081,"oni":7082,"ĠMilo":7083,"Ġbuzzed":7084,"Frank":7085,"ĠSqueaky":7086,"Ġseaw":7087,"Ġneatly":7088,"Ġgrows":7089,"Our":7090,"the":7091,"ĠCra":7092,"Whee":7093,"ĠMikey":7094,"wk":7095,"Ġwraps":7096,"Ġsteady":7097,"Ruby":7098,"Ġposs":7099,"Ġnibb":7100,"Ġfeeding":7101,"ĠUntil":7102,"Ġmarshmallow":7103,"ĠListen":7104,"Ġhandsome":7105,"Ġcond":7106,"Ġmints":7107,"irrel":7108,"Ġdelivering":7109,"Ġnine":7110,"Ġoh":7111,"antha":7112,"Ġdived":7113,"bba":7114,"Ġpolitely":7115,"Ġzebras":7116,"Miss":7117,"Tw":7118,"Ġonward":7119,"Ġalien":7120,"Ġsuffering":7121,"Ġnapkins":7122,"Ġwarmer":7123,"armer":7124,"years":7125,"Ġsneezing":7126,"Ġbaths":7127,"Ġhonked":7128,"Ġplain":7129,"opsy":7130,"Ġdefe":7131,"Ġplucked":7132,"Ġcrashing":7133,"Tweety":7134,"Ġmatters":7135,"Ġembarrass":7136,"Ġposter":7137,"ection":7138,"ĠthatÃ¢":7139,"meal":7140,"Ġlifts":7141,"By":7142,"Ġrefreshing":7143,"ÅĵMom":7144,"Ġunsure":7145,"Ġseaweed":7146,"Ġlungs":7147,"ĠBirthday":7148,"Ġstudents":7149,"Ġincreased":7150,"ĠJudy":7151,"Ġcrew":7152,"Ġjoining":7153,"Ġstands":7154,"Ġtoddler":7155,"Ġoatmeal":7156,"ĠEx":7157,"ĠMartha":7158,"Ġscen":7159,"allowed":7160,"Ġproper":7161,"Ġpreparing":7162,"Ġswallowed":7163,"Ġdip":7164,"Ġglued":7165,"Ġthud":7166,"ÅĵBut":7167,"Ġexpress":7168,"Ġwhispers":7169,"Ġrespond":7170,"Su":7171,"Ġwatering":7172,"aster":7173,"Ġamount":7174,"Ġdie":7175,"Ġropes":7176,"ĠStar":7177,"Ġperformed":7178,"Ġtoaster":7179,"Ġstarfish":7180,"ĠHoot":7181,"Ġleads":7182,"Ġtrembled":7183,"Ġpresses":7184,"Ġwobbly":7185,"Ġtriangles":7186,"Sadly":7187,"Ġhawk":7188,"Ġlessons":7189,"Ġcushions":7190,"Ġbiting":7191,"while":7192,"Ġpostman":7193,"Ġgeese":7194,"ÅĵWell":7195,"Ġdancers":7196,"Ġpops":7197,"Nemo":7198,"Ġpuff":7199,"Ġtalks":7200,"Ġsniffs":7201,"Ġresisted":7202,"Ġfocused":7203,"Ġscraped":7204,"Ġmerry":7205,"Back":7206,"Ġbully":7207,"Ġadults":7208,"Ġpanicked":7209,"Ġconfl":7210,"Ġrushing":7211,"Ġnecklaces":7212,"Ġfreedom":7213,"vant":7214,"Ġflas":7215,"ĠMaya":7216,"Ġpuppet":7217,"Ġsofter":7218,"Ġslips":7219,"ĠKiki":7220,"Ġfirmly":7221,"Ġwaddled":7222,"Ġtrot":7223,"iona":7224,"Ducky":7225,"ados":7226,"Ġjoyful":7227,"Ġfirefly":7228,"Ġencouraging":7229,"Ġtested":7230,"Ġwrigg":7231,"Ġdropping":7232,"ĠSun":7233,"ÅĵWhere":7234,"Ġdrawers":7235,"Ġfrowning":7236,"onna":7237,"Br":7238,"Ġtables":7239,"Ġwaterfall":7240,"Ġworn":7241,"Ġwiggle":7242,"fia":7243,"ĠZoey":7244,"Ġev":7245,"Ġblast":7246,"Ġnervously":7247,"Ġfaded":7248,"rey":7249,"Ġlifting":7250,"bird":7251,"Ġscampered":7252,"Ġrout":7253,"Ġdrivers":7254,"Ġhumans":7255,"Very":7256,"ippy":7257,"lets":7258,"Ġspat":7259,"Ġexplo":7260,"cake":7261,"ĠOnly":7262,"Mimi":7263,"Ġappreciation":7264,"Ġpours":7265,"Ġfirefighter":7266,"Ġrobber":7267,"Ġdrawn":7268,"Ġsqueak":7269,"Ġthoughts":7270,"Ġpennies":7271,"Ġrespected":7272,"Ġquarreling":7273,"Ġpigeons":7274,"Ġthroughout":7275,"Ġtwinkled":7276,"Ġleapt":7277,"retty":7278,"Bet":7279,"Ġocc":7280,"ĠAlong":7281,"Ġstacked":7282,"ĠLove":7283,"but":7284,"Ġdresser":7285,"ĠThatÃ¢":7286,"rrr":7287,"ĠFrosty":7288,"Ġscient":7289,"Ġfits":7290,"Ġcoc":7291,"ĠStay":7292,"ĠJanie":7293,"Ġmaster":7294,"Ġscientist":7295,"anwhile":7296,"roken":7297,"now":7298,"Listen":7299,"ears":7300,"Ġbravest":7301,"Ġavocados":7302,"Ġovercome":7303,"Ġstrongest":7304,"Ġmonths":7305,"Ġelf":7306,"Ġpolar":7307,"Ġplaytime":7308,"Ġsan":7309,"ĠBaa":7310,"Ġnotes":7311,"Ġgonna":7312,"ĠAsh":7313,"ĠTodd":7314,"fire":7315,"Ġnur":7316,"Ġcertain":7317,"ĠTake":7318,"Ġmanag":7319,"Tony":7320,"Ġwept":7321,"ĠMeg":7322,"Ġnood":7323,"Mine":7324,"Ġmunch":7325,"Ġspins":7326,"Ġscored":7327,"Ġcolder":7328,"Ġechoed":7329,"bage":7330,"eel":7331,"Ġcosy":7332,"Ġconvers":7333,"Ġwakes":7334,"ĠSquirrel":7335,"ĠMarie":7336,"Ġgarbage":7337,"Ġplayroom":7338,"Ġdesigns":7339,"Ġperforming":7340,"ĠFrog":7341,"plash":7342,"eezes":7343,"urious":7344,"Ġpeck":7345,"Ġprob":7346,"Ġsank":7347,"Ġflown":7348,"ĠSadie":7349,"Ġtricycle":7350,"ca":7351,"ĠFido":7352,"Ġsweetest":7353,"Ġprove":7354,"Ġforgiving":7355,"Ġprobably":7356,"Ġmarshmallows":7357,"Ġgest":7358,"Ġbehaving":7359,"Like":7360,"cher":7361,"iment":7362,"Ġpumpkins":7363,"oke":7364,"ĠJacky":7365,"ĠBessie":7366,"rying":7367,"Ġexplorer":7368,"Ġguide":7369,"please":7370,"Ġsqueezing":7371,"Ġrobots":7372,"Ġsadd":7373,"Ġtossed":7374,"ÅĵIf":7375,"Ġblinking":7376,"ĠQuick":7377,"bbling":7378,"Ġcausing":7379,"Kim":7380,"Ġbells":7381,"undred":7382,"...\"":7383,"broken":7384,"Ġshown":7385,"Ġcobwebs":7386,"ÅĵOkay":7387,"espite":7388,"ammy":7389,"Ġsquishy":7390,"ĠChe":7391,"Ġspices":7392,"Ġhaird":7393,"Mad":7394,"ĠFire":7395,"Ġpassengers":7396,"Ġcongratul":7397,"Ġcraft":7398,"Ġties":7399,"fus":7400,"Ġtighter":7401,"Ġhealing":7402,"ĠZara":7403,"Ġmate":7404,"Ġangels":7405,"?!\"":7406,"Ġyielded":7407,"ading":7408,"Ġreversed":7409,"ilda":7410,"Ġpound":7411,"David":7412,"Ġaimed":7413,"Follow":7414,"Ġnapping":7415,"ĠFarmer":7416,"Quick":7417,"Even":7418,"Ġgiggles":7419,"upt":7420,"Ġnearly":7421,"Ġpays":7422,"ĠOwl":7423,"Ġoffic":7424,"During":7425,"Ġunw":7426,"Ġdistract":7427,"Ġkittens":7428,"Ġinstruments":7429,"Ġwider":7430,"ĠMouse":7431,"Ġreun":7432,"mates":7433,"aying":7434,"Ġsewing":7435,"alloween":7436,"Ġtil":7437,"Ġnuzz":7438,"Ġdoorway":7439,"Ġconflict":7440,"Ġclues":7441,"ĠUnder":7442,"Ġappreciated":7443,"Ġinj":7444,"Ġpaintbrush":7445,"found":7446,"ĠSimon":7447,"Ġbrushing":7448,"Watch":7449,"Ġcoug":7450,"Ġ2":7451,"Ġshoo":7452,"Ġgrandd":7453,"Ġaction":7454,"Ġyum":7455,"Ġease":7456,"Ġloading":7457,"Ġbru":7458,"Ġpassports":7459,"ancy":7460,"Ġcottage":7461,"onies":7462,"Alright":7463,"ĠHalloween":7464,"ĠJackie":7465,"Ġpaths":7466,"Ġheartbroken":7467,"Ġais":7468,"Ġblocked":7469,"Ġmerma":7470,"ĠMabel":7471,"Ġlaying":7472,"Jerry":7473,"Ġslipping":7474,"ĠLi":7475,"ino":7476,"Ġsweep":7477,"Ġresults":7478,"Ġanger":7479,"Ġbelts":7480,"Ġrepeating":7481,"Ġpins":7482,"Ġfigures":7483,"Ġbits":7484,"isc":7485,"Ġevil":7486,"Ġsoaking":7487,"antastic":7488,"ĠTuna":7489,"idey":7490,"Ġmailed":7491,"Ġwithin":7492,"asty":7493,"Ġtwisty":7494,"Ġtwisting":7495,"ĠWell":7496,"Ġsuffered":7497,"Ġstroll":7498,"ĠPatch":7499,"Ġtuck":7500,"Ġconnected":7501,"ĠWendy":7502,"Ġpuzzled":7503,"Poppy":7504,"âĤ¬,":7505,"Ġshovels":7506,"Ġbuses":7507,"ĠAli":7508,"Ġaccomplished":7509,"Ġdamaged":7510,"Ġnoodles":7511,"Ġund":7512,"Ġcrossing":7513,"Ġhundred":7514,"ĠMichael":7515,"ighting":7516,"Ġbreathing":7517,"Ġsever":7518,"Ġlicking":7519,"Ġbehavior":7520,"Ġroars":7521,"Ġseveral":7522,"Ġtying":7523,"Ġshrug":7524,"Ġresponsib":7525,"Ġbracelets":7526,"Ted":7527,"Ġsurfing":7528,"Ġsurrendered":7529,"Ġrisks":7530,"Ġfinishing":7531,"ĠRalph":7532,"Ġdespite":7533,"Ġfleas":7534,"ĠAmelia":7535,"Ġtoward":7536,"anie":7537,"ÅĵPlease":7538,"Ġencount":7539,"Ġsweat":7540,"Ġlending":7541,"da":7542,"Ġstreamers":7543,"Ġhairdress":7544,"Ġhumming":7545,"Ġdefin":7546,"Vroom":7547,"byes":7548,"lves":7549,"Ġsupported":7550,"Ġshady":7551,"Ġoysters":7552,"Ġcleaner":7553,"Ġquieter":7554,"Ġawoke":7555,"Steve":7556,"Abigail":7557,"Ġgoodbyes":7558,"Ġwhose":7559,"Whenever":7560,"Ġluckily":7561,"ĠBubba":7562,"ĠRobbie":7563,"ÅĵOf":7564,"ĠRay":7565,"Ġignoring":7566,"Ġstitches":7567,"Ġrainy":7568,"Surprise":7569,"Take":7570,"ĠHoney":7571,"Ġrather":7572,"Ġtablet":7573,"isions":7574,"Ġponies":7575,"Ġedges":7576,"Ġcuddles":7577,"ĠFlopsy":7578,"ĠMaddie":7579,"Ġfantastic":7580,"unity":7581,"dding":7582,"ecca":7583,"erk":7584,"Ġslither":7585,"Ġcloudy":7586,"Ġfrowns":7587,"ening":7588,"Ġhanding":7589,"Ġfinal":7590,"Ġsnowflakes":7591,"ppies":7592,"Ġsped":7593,"Ġdrown":7594,"agic":7595,"Ġelbow":7596,"Ġhairdresser":7597,"Ġcotton":7598,"ĠHolly":7599,"Ġthorns":7600,"ĠBirdy":7601,"Ġdefinitely":7602,"Ġcoral":7603,"Ġrains":7604,"iel":7605,"Ġgesture":7606,"Ġkings":7607,"Ġsmallest":7608,"Ġsurv":7609,"Ġsy":7610,"Ġreminding":7611,"Ġwisely":7612,"ĠFuzzy":7613,"ÅĵNow":7614,"crow":7615,"Ġbattle":7616,"ĠBecause":7617,"ĠGreen":7618,"Ġcorrectly":7619,"Ġvines":7620,"Ġdecisions":7621,"Ġdriveway":7622,"ĠUp":7623,"Ġsou":7624,"onnie":7625,"athy":7626,"Ġpeeled":7627,"Ġnewfound":7628,"Hannah":7629,"Ġsqueaked":7630,"whe":7631,"Ġchopped":7632,"Ġsharks":7633,"Ġprick":7634,"Ġstudent":7635,"Ġsnort":7636,"Ġwarri":7637,"Ġgrandson":7638,"Ġsymbols":7639,"Ġweeds":7640,"Ġsimply":7641,"Ġfishes":7642,"hil":7643,"ĠX":7644,"True":7645,"cent":7646,"Ġbandages":7647,"abby":7648,"Ġgranddaughter":7649,"Ġwobble":7650,"onse":7651,"Ġresponse":7652,"Ġnasty":7653,"Ġexcept":7654,"ĠKaren":7655,"Ġexercises":7656,"Ġstopping":7657,"steps":7658,"Ġtar":7659,"ĠFreddie":7660,"Ġoccas":7661,"Adam":7662,"Ġafar":7663,"Ġbanged":7664,"ĠRocky":7665,"Ġdarl":7666,"Ġni":7667,"Beep":7668,"Ġinspired":7669,"Ġdarlings":7670,"father":7671,"Ġtravels":7672,"Ġtipped":7673,"Ġdisturbing":7674,"Ġfills":7675,"Ġmasterp":7676,"Ġlent":7677,"Ġflipped":7678,"ÅĵHey":7679,"Ġfootsteps":7680,"elie":7681,"worm":7682,"Ġpedaled":7683,"line":7684,"Ġbirdhouse":7685,"Ġwindowsill":7686,"Ġpurr":7687,"Ġspits":7688,"Ġtravelling":7689,"ĠPippin":7690,"Ġships":7691,"Ġconvin":7692,"Ġpresented":7693,"Ġscarecrow":7694,"ĠAlthough":7695,"Jamie":7696,"sol":7697,"Ġaddress":7698,"Ġpunishment":7699,"Thomas":7700,"Ġplanting":7701,"Ġapologised":7702,"citedly":7703,"mered":7704,"Ġchocolates":7705,"Ġantic":7706,"eeling":7707,"ĠWelcome":7708,"Ġforests":7709,"ĠRuth":7710,"Ġsurfboard":7711,"ms":7712,"Ġcongratulated":7713,"ĠIm":7714,"ddie":7715,"Ġarranged":7716,"Ġbelieving":7717,"ĠMegan":7718,"Ġreassured":7719,"Ġtrotted":7720,"Ġreunited":7721,"Ġnodding":7722,"Ġencouragement":7723,"Ġcheers":7724,"Ġlies":7725,"Ġimages":7726,"Ġpoppies":7727,"Ġreapp":7728,"Ġcampfire":7729,"iza":7730,"Ġsuits":7731,"Ġbusiness":7732,"Since":7733,"Ġclerk":7734,"ĠSpidey":7735,"Ġtarget":7736,"ooky":7737,"ĠJojo":7738,"Ġmarve":7739,"Ġsails":7740,"Ġmagnif":7741,"issa":7742,"perate":7743,"utter":7744,"Josh":7745,"Ġofficers":7746,"Ġterrified":7747,"Ġbackpacks":7748,"manda":7749,"ĠGina":7750,"Ġgrip":7751,"Ġcovering":7752,"Ġyel":7753,"Ġknots":7754,"Ġfocus":7755,"Ġactivity":7756,"ĠAng":7757,"inkle":7758,"Ġyelped":7759,"Ġsurprising":7760,"Ġwrinkled":7761,"Ġsmelling":7762,"Ġexpert":7763,"ris":7764,"Ġmood":7765,"Ġmasterpiece":7766,"Ġdep":7767,"ĠFighting":7768,"otte":7769,"Ġchanges":7770,"Ġconcert":7771,"Bunny":7772,"Ġchilly":7773,"Ġspills":7774,"Ġspeeding":7775,"ider":7776,"Ġtesting":7777,"ĠSnowman":7778,"Ġtasting":7779,"Ġbraver":7780,"Ġpleaded":7781,"Ġsniffing":7782,"artled":7783,"ĠLia":7784,"Ġcomforting":7785,"Ġdelayed":7786,"Ġgears":7787,"ĠOkay":7788,"Ġcalmly":7789,"we":7790,"ats":7791,"acle":7792,"Jess":7793,"acles":7794,"asha":7795,"Ġlabels":7796,"arlotte":7797,"Ġmermaid":7798,"Mat":7799,"Ġsuggestion":7800,"Penny":7801,"Ġaware":7802,"ĠAny":7803,"ĠRain":7804,"Ġdiscussing":7805,"Ġstumble":7806,"Mira":7807,"Ġjars":7808,"Ġspies":7809,"Ġbelongings":7810,"Ġmischie":7811,"Ġworrying":7812,"Ġmagazines":7813,"Ġbothering":7814,"flies":7815,"Ġcrowns":7816,"Ġartwork":7817,"Ġalthough":7818,"Ġunderstands":7819,"Ġdisplayed":7820,"ĠLouise":7821,"Ġmischievous":7822,"ails":7823,"Chloe":7824,"Ġpuck":7825,"ĠTry":7826,"Ġadmiration":7827,"Ġefforts":7828,"screen":7829,"Ġburying":7830,"Ġheight":7831,"Ġfoxes":7832,"emma":7833,"Ġunfortunately":7834,"pen":7835,"Ġsav":7836,"Ġrefuse":7837,"Ġseller":7838,"Ġhoo":7839,"Ġbaskets":7840,"Ġtoolbox":7841,"rier":7842,"Ġbuddy":7843,"ighing":7844,"Ġbitten":7845,"ĠAlly":7846,"Ġexperienced":7847,"Ġdecl":7848,"Ġbless":7849,"inted":7850,"Ġque":7851,"vroom":7852,"Ġdragonfly":7853,"ĠDavey":7854,"Ġvehicles":7855,"wise":7856,"bell":7857,"what":7858,"Ġpackages":7859,"Ġdisc":7860,"Ġsolving":7861,"Ġdump":7862,"ibbit":7863,"ugging":7864,"Ġpandas":7865,"ĠWally":7866,"Ġannoyed":7867,"Ġtumbled":7868,"Ġmomma":7869,"Ġmemb":7870,"ipes":7871,"aturday":7872,"Ġmembers":7873,"Ġseashells":7874,"Ġfires":7875,"ÅĵThe":7876,"Ġposit":7877,"Ġwarmly":7878,"Ġwealth":7879,"Ġnibbled":7880,"ĠSaturday":7881,"Ġsunscreen":7882,"ĠSofia":7883,"ĠWil":7884,"aint":7885,"Ġpeas":7886,"Ġtreated":7887,"Beth":7888,"Ġtroubles":7889,"Ġsquaw":7890,"Ġrotting":7891,"ĠEva":7892,"Ke":7893,"Ġscent":7894,"Ġmaterial":7895,"ÅĵSure":7896,"Meanwhile":7897,"ĠFroggy":7898,"Any":7899,"Ġconqu":7900,"Ġstomp":7901,"Ġgazing":7902,"Ġcoach":7903,"ĠKaty":7904,"Ġinsisting":7905,"Ġuntied":7906,"Dear":7907,"Rachel":7908,"Ġdiso":7909,"Ġprayers":7910,"ĠOther":7911,"Ġenviron":7912,"Ġparted":7913,"Ġconversation":7914,"ĠDory":7915,"Quack":7916,"Get":7917,"Joy":7918,"aver":7919,"Ġcollap":7920,"Ġencountered":7921,"Ġjoins":7922,"Ġloops":7923,"Ġraces":7924,"ĠPen":7925,"Ġsewed":7926,"Ġsill":7927,"Ġteachers":7928,"Ġenvironment":7929,"Ġscurrying":7930,"ĠSamantha":7931,"attered":7932,"Ġwhispering":7933,"Ġjoked":7934,"Ġargum":7935,"Ġpurpose":7936,"ĠPippa":7937,"Ġtilted":7938,"Goodnight":7939,"Ġstored":7940,"Ġorders":7941,"Ġloses":7942,"Ġexch":7943,"ortunately":7944,"Ġhoops":7945,"Ġgenie":7946,"Ġcowboy":7947,"ppa":7948,"Ġsheets":7949,"Ġspooky":7950,"Ġtweet":7951,"ĠFlo":7952,"ĠPepper":7953,"ĠDuck":7954,"ĠDog":7955,"Ġtoss":7956,"order":7957,"Ġpermitted":7958,"airy":7959,"aven":7960,"Ġquarre":7961,"eedy":7962,"uel":7963,"Ġaim":7964,"ongo":7965,"ĠFiona":7966,"Ġdiamonds":7967,"Ġscram":7968,"Ġtype":7969,"iscuit":7970,"Ġpupils":7971,"Ġanticip":7972,"Ġglittering":7973,"Ġtrans":7974,"Ġqueens":7975,"Ġturtles":7976,"illiam":7977,"Ġbeaming":7978,"Ġnearest":7979,"ĠDespite":7980,"Ġends":7981,"ĠSnowball":7982,"Ġtubes":7983,"Ġmaker":7984,"igger":7985,"Ġservant":7986,"ÅĵSee":7987,"Ġwhimp":7988,"Ġdonkey":7989,"Ġvisitors":7990,"Ġfilms":7991,"Am":7992,"Ġspells":7993,"Ġopport":7994,"Ġgap":7995,"Ġuntie":7996,"ĠHope":7997,"Ġcleared":7998,"Ġfins":7999}